#include "magic_wand_model_data.h"

// We need to keep the data array aligned on some architectures.
#ifdef __has_attribute
#define HAVE_ATTRIBUTE(x) __has_attribute(x)
#else
#define HAVE_ATTRIBUTE(x) 0
#endif
#if HAVE_ATTRIBUTE(aligned) || (defined(__GNUC__) && !defined(__clang__))
#define DATA_ALIGN_ATTRIBUTE __attribute__((aligned(4)))
#else
#define DATA_ALIGN_ATTRIBUTE
#endif

const unsigned char g_magic_wand_model_data[] DATA_ALIGN_ATTRIBUTE = {
  // Paste the data of the char array in `src/model.cc` here
  0x1c, 0x00, 0x00, 0x00, 0x54, 0x46, 0x4c, 0x33, 0x14, 0x00, 0x20, 0x00,
  0x04, 0x00, 0x08, 0x00, 0x0c, 0x00, 0x10, 0x00, 0x14, 0x00, 0x00, 0x00,
  0x18, 0x00, 0x1c, 0x00, 0x14, 0x00, 0x00, 0x00, 0x03, 0x00, 0x00, 0x00,
  0x18, 0x00, 0x00, 0x00, 0x2c, 0x00, 0x00, 0x00, 0xd8, 0x00, 0x00, 0x00,
  0x2c, 0x00, 0x00, 0x00, 0x80, 0x00, 0x00, 0x00, 0x78, 0x00, 0x00, 0x00,
  0x05, 0x00, 0x00, 0x00, 0x28, 0x07, 0x00, 0x00, 0x44, 0x06, 0x00, 0x00,
  0xbc, 0x03, 0x00, 0x00, 0xf8, 0x02, 0x00, 0x00, 0xac, 0x01, 0x00, 0x00,
  0x01, 0x00, 0x00, 0x00, 0xd0, 0x00, 0x00, 0x00, 0x14, 0x00, 0x00, 0x00,
  0x98, 0x32, 0x00, 0x00, 0x94, 0x32, 0x00, 0x00, 0x8c, 0x31, 0x00, 0x00,
  0xd8, 0x30, 0x00, 0x00, 0x30, 0x30, 0x00, 0x00, 0xbc, 0x2f, 0x00, 0x00,
  0x50, 0x2f, 0x00, 0x00, 0x00, 0x13, 0x00, 0x00, 0xec, 0x11, 0x00, 0x00,
  0x10, 0x10, 0x00, 0x00, 0xb4, 0x07, 0x00, 0x00, 0x6c, 0x32, 0x00, 0x00,
  0x68, 0x32, 0x00, 0x00, 0x64, 0x32, 0x00, 0x00, 0x60, 0x32, 0x00, 0x00,
  0x5c, 0x32, 0x00, 0x00, 0x58, 0x32, 0x00, 0x00, 0x54, 0x32, 0x00, 0x00,
  0x50, 0x32, 0x00, 0x00, 0x3c, 0x00, 0x00, 0x00, 0x00, 0x00, 0x00, 0x00,
  0x01, 0x00, 0x00, 0x00, 0x0c, 0x00, 0x00, 0x00, 0x08, 0x00, 0x0c, 0x00,
  0x04, 0x00, 0x08, 0x00, 0x08, 0x00, 0x00, 0x00, 0x08, 0x00, 0x00, 0x00,
  0x13, 0x00, 0x00, 0x00, 0x13, 0x00, 0x00, 0x00, 0x6d, 0x69, 0x6e, 0x5f,
  0x72, 0x75, 0x6e, 0x74, 0x69, 0x6d, 0x65, 0x5f, 0x76, 0x65, 0x72, 0x73,
  0x69, 0x6f, 0x6e, 0x00, 0xfa, 0xce, 0xff, 0xff, 0x04, 0x00, 0x00, 0x00,
  0x10, 0x00, 0x00, 0x00, 0x31, 0x2e, 0x35, 0x2e, 0x30, 0x00, 0x00, 0x00,
  0x00, 0x00, 0x00, 0x00, 0x00, 0x00, 0x00, 0x00, 0x0f, 0x00, 0x00, 0x00,
  0x4d, 0x4c, 0x49, 0x52, 0x20, 0x43, 0x6f, 0x6e, 0x76, 0x65, 0x72, 0x74,
  0x65, 0x64, 0x2e, 0x00, 0x00, 0x00, 0x0e, 0x00, 0x18, 0x00, 0x04, 0x00,
  0x08, 0x00, 0x0c, 0x00, 0x10, 0x00, 0x14, 0x00, 0x0e, 0x00, 0x00, 0x00,
  0x14, 0x00, 0x00, 0x00, 0x5c, 0x00, 0x00, 0x00, 0x60, 0x00, 0x00, 0x00,
  0x64, 0x00, 0x00, 0x00, 0x84, 0x00, 0x00, 0x00, 0x12, 0x00, 0x00, 0x00,
  0x58, 0x31, 0x00, 0x00, 0xe8, 0x30, 0x00, 0x00, 0x44, 0x30, 0x00, 0x00,
  0x9c, 0x2f, 0x00, 0x00, 0xf4, 0x2e, 0x00, 0x00, 0x94, 0x2e, 0x00, 0x00,
  0x2c, 0x2e, 0x00, 0x00, 0xd8, 0x11, 0x00, 0x00, 0xbc, 0x10, 0x00, 0x00,
  0xe0, 0x0e, 0x00, 0x00, 0x0c, 0x06, 0x00, 0x00, 0x28, 0x05, 0x00, 0x00,
  0xe8, 0x03, 0x00, 0x00, 0x3c, 0x03, 0x00, 0x00, 0x98, 0x02, 0x00, 0x00,
  0xd4, 0x01, 0x00, 0x00, 0x10, 0x01, 0x00, 0x00, 0x84, 0x00, 0x00, 0x00,
  0x01, 0x00, 0x00, 0x00, 0x00, 0x00, 0x00, 0x00, 0x01, 0x00, 0x00, 0x00,
  0x11, 0x00, 0x00, 0x00, 0x08, 0x00, 0x00, 0x00, 0x74, 0x05, 0x00, 0x00,
  0x94, 0x04, 0x00, 0x00, 0x78, 0x03, 0x00, 0x00, 0xbc, 0x02, 0x00, 0x00,
  0x30, 0x02, 0x00, 0x00, 0x50, 0x01, 0x00, 0x00, 0xa8, 0x00, 0x00, 0x00,
  0x10, 0x00, 0x00, 0x00, 0x04, 0x00, 0x00, 0x00, 0x6d, 0x61, 0x69, 0x6e,
  0x00, 0x00, 0x00, 0x00, 0x7a, 0xff, 0xff, 0xff, 0x00, 0x00, 0x00, 0x09,
  0x04, 0x00, 0x00, 0x00, 0x1c, 0x00, 0x00, 0x00, 0x10, 0x00, 0x00, 0x00,
  0x04, 0x00, 0x00, 0x00, 0xf6, 0xcf, 0xff, 0xff, 0x00, 0x00, 0x80, 0x3f,
  0x01, 0x00, 0x00, 0x00, 0x11, 0x00, 0x00, 0x00, 0x01, 0x00, 0x00, 0x00,
  0x10, 0x00, 0x00, 0x00, 0xa0, 0xfa, 0xff, 0xff, 0x19, 0x00, 0x00, 0x00,
  0x00, 0x00, 0x00, 0x19, 0x01, 0x00, 0x00, 0x00, 0x84, 0xcf, 0xff, 0xff,
  0x14, 0x00, 0x00, 0x00, 0x12, 0x00, 0x00, 0x00, 0x18, 0x00, 0x00, 0x00,
  0x30, 0x00, 0x00, 0x00, 0x20, 0x00, 0x00, 0x00, 0x02, 0x00, 0x00, 0x00,
  0x01, 0x00, 0x00, 0x00, 0x03, 0x00, 0x00, 0x00, 0x08, 0x00, 0x00, 0x00,
  0x49, 0x64, 0x65, 0x6e, 0x74, 0x69, 0x74, 0x79, 0x00, 0x00, 0x00, 0x00,
  0x02, 0x00, 0x00, 0x00, 0xff, 0xff, 0xff, 0xff, 0x03, 0x00, 0x00, 0x00,
  0x68, 0xd0, 0xff, 0xff, 0x00, 0x00, 0x0e, 0x00, 0x18, 0x00, 0x08, 0x00,
  0x0c, 0x00, 0x10, 0x00, 0x07, 0x00, 0x14, 0x00, 0x0e, 0x00, 0x00, 0x00,
  0x00, 0x00, 0x00, 0x08, 0x03, 0x00, 0x00, 0x00, 0x18, 0x00, 0x00, 0x00,
  0x0c, 0x00, 0x00, 0x00, 0x04, 0x00, 0x00, 0x00, 0x84, 0xcf, 0xff, 0xff,
  0x01, 0x00, 0x00, 0x00, 0x10, 0x00, 0x00, 0x00, 0x03, 0x00, 0x00, 0x00,
  0x0f, 0x00, 0x00, 0x00, 0x07, 0x00, 0x00, 0x00, 0x04, 0x00, 0x00, 0x00,
  0x0c, 0xd0, 0xff, 0xff, 0x14, 0x00, 0x00, 0x00, 0x11, 0x00, 0x00, 0x00,
  0x18, 0x00, 0x00, 0x00, 0x5c, 0x00, 0x00, 0x00, 0x4c, 0x00, 0x00, 0x00,
  0x02, 0x00, 0x00, 0x00, 0x01, 0x00, 0x00, 0x00, 0x03, 0x00, 0x00, 0x00,
  0x34, 0x00, 0x00, 0x00, 0x73, 0x65, 0x71, 0x75, 0x65, 0x6e, 0x74, 0x69,
  0x61, 0x6c, 0x2f, 0x64, 0x65, 0x6e, 0x73, 0x65, 0x5f, 0x31, 0x2f, 0x4d,
  0x61, 0x74, 0x4d, 0x75, 0x6c, 0x3b, 0x73, 0x65, 0x71, 0x75, 0x65, 0x6e,
  0x74, 0x69, 0x61, 0x6c, 0x2f, 0x64, 0x65, 0x6e, 0x73, 0x65, 0x5f, 0x31,
  0x2f, 0x42, 0x69, 0x61, 0x73, 0x41, 0x64, 0x64, 0x00, 0x00, 0x00, 0x00,
  0x02, 0x00, 0x00, 0x00, 0xff, 0xff, 0xff, 0xff, 0x03, 0x00, 0x00, 0x00,
  0x0c, 0xd0, 0xff, 0xff, 0xda, 0xfc, 0xff, 0xff, 0x00, 0x00, 0x00, 0x08,
  0x03, 0x00, 0x00, 0x00, 0x24, 0x00, 0x00, 0x00, 0x18, 0x00, 0x00, 0x00,
  0x0c, 0x00, 0x00, 0x00, 0x00, 0x00, 0x06, 0x00, 0x08, 0x00, 0x07, 0x00,
  0x06, 0x00, 0x00, 0x00, 0x00, 0x00, 0x00, 0x01, 0x01, 0x00, 0x00, 0x00,
  0x0f, 0x00, 0x00, 0x00, 0x03, 0x00, 0x00, 0x00, 0x0e, 0x00, 0x00, 0x00,
  0x06, 0x00, 0x00, 0x00, 0x03, 0x00, 0x00, 0x00, 0xe8, 0xfb, 0xff, 0xff,
  0x09, 0x00, 0x00, 0x00, 0x00, 0x00, 0x00, 0x09, 0x01, 0x00, 0x00, 0x00,
  0xcc, 0xd0, 0xff, 0xff, 0x14, 0x00, 0x00, 0x00, 0x10, 0x00, 0x00, 0x00,
  0x18, 0x00, 0x00, 0x00, 0x6c, 0x00, 0x00, 0x00, 0x5c, 0x00, 0x00, 0x00,
  0x02, 0x00, 0x00, 0x00, 0x01, 0x00, 0x00, 0x00, 0x10, 0x00, 0x00, 0x00,
  0x46, 0x00, 0x00, 0x00, 0x73, 0x65, 0x71, 0x75, 0x65, 0x6e, 0x74, 0x69,
  0x61, 0x6c, 0x2f, 0x64, 0x65, 0x6e, 0x73, 0x65, 0x2f, 0x4d, 0x61, 0x74,
  0x4d, 0x75, 0x6c, 0x3b, 0x73, 0x65, 0x71, 0x75, 0x65, 0x6e, 0x74, 0x69,
  0x61, 0x6c, 0x2f, 0x64, 0x65, 0x6e, 0x73, 0x65, 0x2f, 0x52, 0x65, 0x6c,
  0x75, 0x3b, 0x73, 0x65, 0x71, 0x75, 0x65, 0x6e, 0x74, 0x69, 0x61, 0x6c,
  0x2f, 0x64, 0x65, 0x6e, 0x73, 0x65, 0x2f, 0x42, 0x69, 0x61, 0x73, 0x41,
  0x64, 0x64, 0x00, 0x00, 0x02, 0x00, 0x00, 0x00, 0xff, 0xff, 0xff, 0xff,
  0x10, 0x00, 0x00, 0x00, 0xec, 0xd1, 0xff, 0xff, 0x00, 0x00, 0x0a, 0x00,
  0x10, 0x00, 0x04, 0x00, 0x08, 0x00, 0x0c, 0x00, 0x0a, 0x00, 0x00, 0x00,
  0x02, 0x00, 0x00, 0x00, 0x10, 0x00, 0x00, 0x00, 0x04, 0x00, 0x00, 0x00,
  0x01, 0x00, 0x00, 0x00, 0x0e, 0x00, 0x00, 0x00, 0x02, 0x00, 0x00, 0x00,
  0x0d, 0x00, 0x00, 0x00, 0x05, 0x00, 0x00, 0x00, 0xa8, 0xfc, 0xff, 0xff,
  0x16, 0x00, 0x00, 0x00, 0x00, 0x00, 0x00, 0x16, 0x01, 0x00, 0x00, 0x00,
  0x8c, 0xd1, 0xff, 0xff, 0x14, 0x00, 0x00, 0x00, 0x0f, 0x00, 0x00, 0x00,
  0x18, 0x00, 0x00, 0x00, 0x40, 0x00, 0x00, 0x00, 0x30, 0x00, 0x00, 0x00,
  0x02, 0x00, 0x00, 0x00, 0x01, 0x00, 0x00, 0x00, 0x70, 0x00, 0x00, 0x00,
  0x1a, 0x00, 0x00, 0x00, 0x73, 0x65, 0x71, 0x75, 0x65, 0x6e, 0x74, 0x69,
  0x61, 0x6c, 0x2f, 0x66, 0x6c, 0x61, 0x74, 0x74, 0x65, 0x6e, 0x2f, 0x52,
  0x65, 0x73, 0x68, 0x61, 0x70, 0x65, 0x00, 0x00, 0x02, 0x00, 0x00, 0x00,
  0xff, 0xff, 0xff, 0xff, 0x70, 0x00, 0x00, 0x00, 0x70, 0xd1, 0xff, 0xff,
  0x3e, 0xfe, 0xff, 0xff, 0x00, 0x00, 0x00, 0x05, 0x01, 0x00, 0x00, 0x00,
  0x38, 0x00, 0x00, 0x00, 0x2c, 0x00, 0x00, 0x00, 0x14, 0x00, 0x00, 0x00,
  0x00, 0x00, 0x0e, 0x00, 0x14, 0x00, 0x00, 0x00, 0x10, 0x00, 0x0c, 0x00,
  0x08, 0x00, 0x04, 0x00, 0x0e, 0x00, 0x00, 0x00, 0x03, 0x00, 0x00, 0x00,
  0x01, 0x00, 0x00, 0x00, 0x03, 0x00, 0x00, 0x00, 0x01, 0x00, 0x00, 0x00,
  0x01, 0x00, 0x00, 0x00, 0x0d, 0x00, 0x00, 0x00, 0x01, 0x00, 0x00, 0x00,
  0x0c, 0x00, 0x00, 0x00, 0x2c, 0xd2, 0xff, 0xff, 0x14, 0x00, 0x00, 0x00,
  0x0e, 0x00, 0x00, 0x00, 0x20, 0x00, 0x00, 0x00, 0x58, 0x00, 0x00, 0x00,
  0x40, 0x00, 0x00, 0x00, 0x04, 0x00, 0x00, 0x00, 0x01, 0x00, 0x00, 0x00,
  0x07, 0x00, 0x00, 0x00, 0x01, 0x00, 0x00, 0x00, 0x10, 0x00, 0x00, 0x00,
  0x22, 0x00, 0x00, 0x00, 0x73, 0x65, 0x71, 0x75, 0x65, 0x6e, 0x74, 0x69,
  0x61, 0x6c, 0x2f, 0x6d, 0x61, 0x78, 0x5f, 0x70, 0x6f, 0x6f, 0x6c, 0x69,
  0x6e, 0x67, 0x32, 0x64, 0x5f, 0x31, 0x2f, 0x4d, 0x61, 0x78, 0x50, 0x6f,
  0x6f, 0x6c, 0x00, 0x00, 0x04, 0x00, 0x00, 0x00, 0xff, 0xff, 0xff, 0xff,
  0x07, 0x00, 0x00, 0x00, 0x01, 0x00, 0x00, 0x00, 0x10, 0x00, 0x00, 0x00,
  0x28, 0xd2, 0xff, 0xff, 0x1a, 0xfe, 0xff, 0xff, 0x00, 0x00, 0x00, 0x01,
  0x24, 0x00, 0x00, 0x00, 0x18, 0x00, 0x00, 0x00, 0x04, 0x00, 0x00, 0x00,
  0x0c, 0xfe, 0xff, 0xff, 0x01, 0x00, 0x00, 0x00, 0x01, 0x00, 0x00, 0x00,
  0x00, 0x00, 0x00, 0x01, 0x01, 0x00, 0x00, 0x00, 0x0c, 0x00, 0x00, 0x00,
  0x03, 0x00, 0x00, 0x00, 0x0b, 0x00, 0x00, 0x00, 0x09, 0x00, 0x00, 0x00,
  0x02, 0x00, 0x00, 0x00, 0xd4, 0xd2, 0xff, 0xff, 0x14, 0x00, 0x00, 0x00,
  0x0d, 0x00, 0x00, 0x00, 0x20, 0x00, 0x00, 0x00, 0xb8, 0x00, 0x00, 0x00,
  0xa0, 0x00, 0x00, 0x00, 0x04, 0x00, 0x00, 0x00, 0x01, 0x00, 0x00, 0x00,
  0x15, 0x00, 0x00, 0x00, 0x01, 0x00, 0x00, 0x00, 0x10, 0x00, 0x00, 0x00,
  0x83, 0x00, 0x00, 0x00, 0x73, 0x65, 0x71, 0x75, 0x65, 0x6e, 0x74, 0x69,
  0x61, 0x6c, 0x2f, 0x63, 0x6f, 0x6e, 0x76, 0x32, 0x64, 0x5f, 0x31, 0x2f,
  0x52, 0x65, 0x6c, 0x75, 0x3b, 0x73, 0x65, 0x71, 0x75, 0x65, 0x6e, 0x74,
  0x69, 0x61, 0x6c, 0x2f, 0x63, 0x6f, 0x6e, 0x76, 0x32, 0x64, 0x5f, 0x31,
  0x2f, 0x42, 0x69, 0x61, 0x73, 0x41, 0x64, 0x64, 0x3b, 0x73, 0x65, 0x71,
  0x75, 0x65, 0x6e, 0x74, 0x69, 0x61, 0x6c, 0x2f, 0x63, 0x6f, 0x6e, 0x76,
  0x32, 0x64, 0x5f, 0x31, 0x2f, 0x43, 0x6f, 0x6e, 0x76, 0x32, 0x44, 0x3b,
  0x73, 0x65, 0x71, 0x75, 0x65, 0x6e, 0x74, 0x69, 0x61, 0x6c, 0x2f, 0x63,
  0x6f, 0x6e, 0x76, 0x32, 0x64, 0x5f, 0x31, 0x2f, 0x42, 0x69, 0x61, 0x73,
  0x41, 0x64, 0x64, 0x2f, 0x52, 0x65, 0x61, 0x64, 0x56, 0x61, 0x72, 0x69,
  0x61, 0x62, 0x6c, 0x65, 0x4f, 0x70, 0x2f, 0x72, 0x65, 0x73, 0x6f, 0x75,
  0x72, 0x63, 0x65, 0x00, 0x04, 0x00, 0x00, 0x00, 0xff, 0xff, 0xff, 0xff,
  0x15, 0x00, 0x00, 0x00, 0x01, 0x00, 0x00, 0x00, 0x10, 0x00, 0x00, 0x00,
  0x40, 0xd4, 0xff, 0xff, 0x00, 0x00, 0x0e, 0x00, 0x1a, 0x00, 0x08, 0x00,
  0x0c, 0x00, 0x10, 0x00, 0x07, 0x00, 0x14, 0x00, 0x0e, 0x00, 0x00, 0x00,
  0x00, 0x00, 0x00, 0x05, 0x01, 0x00, 0x00, 0x00, 0x3c, 0x00, 0x00, 0x00,
  0x30, 0x00, 0x00, 0x00, 0x14, 0x00, 0x00, 0x00, 0x00, 0x00, 0x0e, 0x00,
  0x18, 0x00, 0x17, 0x00, 0x10, 0x00, 0x0c, 0x00, 0x08, 0x00, 0x04, 0x00,
  0x0e, 0x00, 0x00, 0x00, 0x03, 0x00, 0x00, 0x00, 0x03, 0x00, 0x00, 0x00,
  0x03, 0x00, 0x00, 0x00, 0x03, 0x00, 0x00, 0x00, 0x00, 0x00, 0x00, 0x01,
  0x01, 0x00, 0x00, 0x00, 0x0b, 0x00, 0x00, 0x00, 0x01, 0x00, 0x00, 0x00,
  0x0a, 0x00, 0x00, 0x00, 0x2c, 0xff, 0xff, 0xff, 0x11, 0x00, 0x00, 0x00,
  0x00, 0x00, 0x00, 0x11, 0x01, 0x00, 0x00, 0x00, 0x10, 0xd4, 0xff, 0xff,
  0x14, 0x00, 0x00, 0x00, 0x0c, 0x00, 0x00, 0x00, 0x20, 0x00, 0x00, 0x00,
  0x58, 0x00, 0x00, 0x00, 0x40, 0x00, 0x00, 0x00, 0x04, 0x00, 0x00, 0x00,
  0x01, 0x00, 0x00, 0x00, 0x15, 0x00, 0x00, 0x00, 0x01, 0x00, 0x00, 0x00,
  0x08, 0x00, 0x00, 0x00, 0x20, 0x00, 0x00, 0x00, 0x73, 0x65, 0x71, 0x75,
  0x65, 0x6e, 0x74, 0x69, 0x61, 0x6c, 0x2f, 0x6d, 0x61, 0x78, 0x5f, 0x70,
  0x6f, 0x6f, 0x6c, 0x69, 0x6e, 0x67, 0x32, 0x64, 0x2f, 0x4d, 0x61, 0x78,
  0x50, 0x6f, 0x6f, 0x6c, 0x00, 0x00, 0x00, 0x00, 0x04, 0x00, 0x00, 0x00,
  0xff, 0xff, 0xff, 0xff, 0x15, 0x00, 0x00, 0x00, 0x01, 0x00, 0x00, 0x00,
  0x08, 0x00, 0x00, 0x00, 0x1c, 0xd5, 0xff, 0xff, 0x00, 0x00, 0x0e, 0x00,
  0x14, 0x00, 0x00, 0x00, 0x08, 0x00, 0x0c, 0x00, 0x07, 0x00, 0x10, 0x00,
  0x0e, 0x00, 0x00, 0x00, 0x00, 0x00, 0x00, 0x01, 0x30, 0x00, 0x00, 0x00,
  0x24, 0x00, 0x00, 0x00, 0x10, 0x00, 0x00, 0x00, 0x0c, 0x00, 0x10, 0x00,
  0x00, 0x00, 0x04, 0x00, 0x08, 0x00, 0x0f, 0x00, 0x0c, 0x00, 0x00, 0x00,
  0x01, 0x00, 0x00, 0x00, 0x01, 0x00, 0x00, 0x00, 0x00, 0x00, 0x00, 0x01,
  0x01, 0x00, 0x00, 0x00, 0x0a, 0x00, 0x00, 0x00, 0x03, 0x00, 0x00, 0x00,
  0x00, 0x00, 0x00, 0x00, 0x08, 0x00, 0x00, 0x00, 0x01, 0x00, 0x00, 0x00,
  0x0c, 0x00, 0x10, 0x00, 0x0b, 0x00, 0x00, 0x00, 0x0c, 0x00, 0x04, 0x00,
  0x0c, 0x00, 0x00, 0x00, 0x03, 0x00, 0x00, 0x00, 0x00, 0x00, 0x00, 0x03,
  0x01, 0x00, 0x00, 0x00, 0xf0, 0xd4, 0xff, 0xff, 0x14, 0x00, 0x00, 0x00,
  0x0b, 0x00, 0x00, 0x00, 0x20, 0x00, 0x00, 0x00, 0xb0, 0x00, 0x00, 0x00,
  0x98, 0x00, 0x00, 0x00, 0x04, 0x00, 0x00, 0x00, 0x01, 0x00, 0x00, 0x00,
  0x40, 0x00, 0x00, 0x00, 0x03, 0x00, 0x00, 0x00, 0x08, 0x00, 0x00, 0x00,
  0x7b, 0x00, 0x00, 0x00, 0x73, 0x65, 0x71, 0x75, 0x65, 0x6e, 0x74, 0x69,
  0x61, 0x6c, 0x2f, 0x63, 0x6f, 0x6e, 0x76, 0x32, 0x64, 0x2f, 0x52, 0x65,
  0x6c, 0x75, 0x3b, 0x73, 0x65, 0x71, 0x75, 0x65, 0x6e, 0x74, 0x69, 0x61,
  0x6c, 0x2f, 0x63, 0x6f, 0x6e, 0x76, 0x32, 0x64, 0x2f, 0x42, 0x69, 0x61,
  0x73, 0x41, 0x64, 0x64, 0x3b, 0x73, 0x65, 0x71, 0x75, 0x65, 0x6e, 0x74,
  0x69, 0x61, 0x6c, 0x2f, 0x63, 0x6f, 0x6e, 0x76, 0x32, 0x64, 0x2f, 0x43,
  0x6f, 0x6e, 0x76, 0x32, 0x44, 0x3b, 0x73, 0x65, 0x71, 0x75, 0x65, 0x6e,
  0x74, 0x69, 0x61, 0x6c, 0x2f, 0x63, 0x6f, 0x6e, 0x76, 0x32, 0x64, 0x2f,
  0x42, 0x69, 0x61, 0x73, 0x41, 0x64, 0x64, 0x2f, 0x52, 0x65, 0x61, 0x64,
  0x56, 0x61, 0x72, 0x69, 0x61, 0x62, 0x6c, 0x65, 0x4f, 0x70, 0x2f, 0x72,
  0x65, 0x73, 0x6f, 0x75, 0x72, 0x63, 0x65, 0x00, 0x04, 0x00, 0x00, 0x00,
  0xff, 0xff, 0xff, 0xff, 0x40, 0x00, 0x00, 0x00, 0x03, 0x00, 0x00, 0x00,
  0x08, 0x00, 0x00, 0x00, 0x44, 0xd5, 0xff, 0xff, 0x4e, 0xd6, 0xff, 0xff,
  0x04, 0x00, 0x00, 0x00, 0x00, 0x08, 0x00, 0x00, 0x7f, 0x6d, 0x7a, 0x3d,
  0x1a, 0x59, 0x09, 0xbe, 0x19, 0xc4, 0x7a, 0xbe, 0x60, 0x0c, 0x1c, 0xbd,
  0xed, 0x28, 0xc3, 0xbd, 0xd7, 0x02, 0xdd, 0xbd, 0x87, 0xab, 0xca, 0xbd,
  0x34, 0xe5, 0xf4, 0xbb, 0x29, 0x2c, 0x82, 0x3d, 0xf5, 0x9d, 0x8f, 0xbd,
  0xa3, 0x3c, 0x96, 0xbd, 0x4c, 0x13, 0x5f, 0xbd, 0x76, 0x65, 0x19, 0x3f,
  0xd5, 0x9b, 0xf3, 0xbd, 0x75, 0xaa, 0xb2, 0x3d, 0x9a, 0x80, 0x0c, 0xbe,
  0xd4, 0x1a, 0x36, 0x3d, 0x78, 0x16, 0xb4, 0x3d, 0x52, 0xd7, 0xd2, 0xbc,
  0xc8, 0x4e, 0x5b, 0xbc, 0xb4, 0xdc, 0x98, 0x3d, 0x0c, 0x36, 0xee, 0xbd,
  0x4a, 0xe5, 0xfb, 0xbb, 0x88, 0x5e, 0x94, 0xbe, 0x15, 0x7f, 0x2b, 0xbe,
  0x5e, 0xe6, 0x51, 0x3e, 0xaf, 0x4b, 0xae, 0x3e, 0xb8, 0x59, 0xbb, 0xbd,
  0x2d, 0x2a, 0xf8, 0xbd, 0x1b, 0x31, 0x4a, 0xbe, 0x2c, 0xd2, 0x1e, 0xbe,
  0x39, 0xc2, 0xb3, 0xbe, 0xed, 0xd5, 0x7e, 0x3d, 0xbf, 0x5b, 0x1f, 0x3c,
  0x8d, 0xaf, 0x30, 0x3c, 0xfe, 0xd2, 0x2b, 0x3d, 0x85, 0xe1, 0xd5, 0x3c,
  0x41, 0x27, 0x1e, 0xbe, 0x02, 0x36, 0xf4, 0x3d, 0xd3, 0xbf, 0xdc, 0xbd,
  0x7a, 0x4e, 0x10, 0x3d, 0x9b, 0x17, 0x49, 0x3e, 0xdb, 0x72, 0xe4, 0x3c,
  0x16, 0x61, 0x72, 0xbd, 0xe4, 0xd8, 0x15, 0xbc, 0xf9, 0xef, 0x4e, 0x3c,
  0x49, 0xec, 0xd2, 0x3e, 0x70, 0xba, 0xc4, 0xbd, 0x6f, 0xcc, 0x1f, 0xbd,
  0x86, 0x24, 0x8a, 0x3e, 0x0f, 0xf8, 0x3b, 0x3e, 0xf6, 0x04, 0x6f, 0xbd,
  0xb4, 0xb2, 0x5b, 0x3e, 0x00, 0x89, 0xdd, 0xbd, 0x2f, 0xb5, 0xb2, 0xbd,
  0x49, 0x0d, 0xae, 0xbd, 0xbb, 0x31, 0x4d, 0xbd, 0x60, 0xed, 0x10, 0xbe,
  0xc1, 0xdc, 0xe3, 0xbc, 0xc9, 0xfb, 0x46, 0xbd, 0x64, 0xa9, 0x91, 0xbe,
  0x92, 0xdc, 0xce, 0xbd, 0x50, 0xdc, 0x63, 0xbc, 0xb7, 0xd0, 0x63, 0xbe,
  0x7a, 0x91, 0x52, 0xbe, 0x8f, 0x0d, 0x8a, 0xbe, 0x51, 0x90, 0xe5, 0xbd,
  0xbe, 0x2c, 0xcf, 0x3b, 0xcb, 0x00, 0xb5, 0xbe, 0xfb, 0x18, 0x53, 0xbe,
  0x20, 0xa9, 0x55, 0xbe, 0x6d, 0x9c, 0x1f, 0xbe, 0x80, 0x52, 0x1f, 0xbe,
  0x60, 0x83, 0x81, 0xbe, 0xfa, 0x99, 0x84, 0x3d, 0x83, 0x6f, 0x5a, 0xbd,
  0x91, 0x91, 0xb1, 0xbe, 0xde, 0x47, 0xb6, 0x3d, 0x1f, 0x99, 0x74, 0xbe,
  0xc7, 0x49, 0x93, 0xbc, 0x09, 0x66, 0x24, 0x3e, 0x21, 0xc1, 0x85, 0xbe,
  0x43, 0x08, 0x76, 0xbe, 0x58, 0x67, 0x67, 0xbd, 0x5d, 0xd7, 0x95, 0xbe,
  0x5d, 0x14, 0xca, 0xbc, 0x8d, 0x7d, 0x85, 0xbe, 0x63, 0xd8, 0x84, 0xbe,
  0x30, 0x44, 0x77, 0x3d, 0x86, 0x06, 0x90, 0xbe, 0x27, 0x45, 0xd0, 0xbd,
  0x1c, 0x1e, 0xbc, 0xbb, 0x78, 0x17, 0x84, 0xbe, 0xb2, 0xd0, 0x0f, 0xbe,
  0x32, 0x73, 0x83, 0xbe, 0x8a, 0x1c, 0x4b, 0xbd, 0x41, 0x7f, 0x13, 0xbe,
  0x52, 0x64, 0x41, 0x3f, 0xbe, 0x41, 0xa7, 0xbe, 0xb3, 0x4d, 0xbe, 0xbd,
  0x54, 0x74, 0x60, 0xbb, 0x1d, 0x8a, 0xee, 0xbe, 0x5b, 0x97, 0xd6, 0x3e,
  0x48, 0x76, 0x88, 0xbe, 0x74, 0xb9, 0x3a, 0x3c, 0x76, 0xfa, 0x41, 0x3d,
  0xbc, 0x6c, 0x51, 0xbe, 0x21, 0xe3, 0x2e, 0xbe, 0xfe, 0xde, 0x7e, 0xbe,
  0x68, 0x6d, 0xa3, 0xbd, 0xb1, 0xbe, 0x34, 0xbe, 0xe3, 0xd1, 0x90, 0xbe,
  0xe1, 0x39, 0x34, 0x3e, 0xc1, 0x36, 0x12, 0xbe, 0xf8, 0xec, 0xd7, 0x3d,
  0x52, 0xc5, 0xa4, 0xbd, 0x8d, 0xc0, 0x8c, 0x3e, 0x58, 0x23, 0x15, 0xbc,
  0xc3, 0xcf, 0x12, 0xbe, 0x5e, 0xbb, 0xd8, 0x3d, 0x6c, 0x6a, 0x5b, 0xbc,
  0x96, 0x39, 0xf4, 0xbb, 0x31, 0x94, 0xb7, 0xbc, 0x73, 0xf8, 0x14, 0x3d,
  0x81, 0xf0, 0x0a, 0xbe, 0x10, 0x9d, 0xed, 0xbd, 0x3c, 0x48, 0x69, 0xbe,
  0x01, 0x81, 0x33, 0x3d, 0x06, 0x7c, 0x48, 0xbe, 0x37, 0xb2, 0xc0, 0xbe,
  0xff, 0x41, 0x0c, 0x3f, 0x23, 0x36, 0x3b, 0xbe, 0xb4, 0xff, 0x46, 0xbd,
  0xbf, 0x42, 0x81, 0xba, 0xbb, 0x07, 0x7f, 0xbe, 0x3b, 0x1f, 0x53, 0xbc,
  0x48, 0x04, 0x02, 0xbf, 0x57, 0xb2, 0x0b, 0xbe, 0xd0, 0x56, 0x46, 0xbe,
  0x46, 0x98, 0xe4, 0xbd, 0x61, 0x5a, 0x83, 0x3d, 0x5e, 0x00, 0x25, 0xbe,
  0x23, 0x46, 0xb6, 0xbd, 0xd0, 0x81, 0x29, 0x3e, 0x13, 0xc1, 0xd6, 0xbd,
  0x11, 0xf5, 0x42, 0x3c, 0x74, 0x35, 0xaf, 0xbe, 0x54, 0xb7, 0x96, 0xbc,
  0x8d, 0x90, 0x90, 0xbe, 0x7a, 0xad, 0x8a, 0xbe, 0x50, 0xd2, 0xe9, 0xbd,
  0xe2, 0x39, 0xc4, 0xbe, 0x45, 0xf0, 0x6b, 0x3e, 0xa3, 0xdc, 0x2a, 0xbd,
  0x5a, 0x74, 0x71, 0xbe, 0x01, 0x14, 0xe3, 0x3d, 0x58, 0xd9, 0x28, 0x3d,
  0x91, 0x53, 0x17, 0x3e, 0xcb, 0x43, 0xdb, 0x3d, 0x6d, 0x3a, 0x43, 0xbe,
  0xc8, 0x70, 0xc6, 0xbe, 0xc3, 0x0e, 0xf2, 0x3e, 0x7d, 0xc1, 0x85, 0xbd,
  0x35, 0x64, 0x8b, 0xbb, 0x10, 0x9e, 0x83, 0x3d, 0xa4, 0xdc, 0x04, 0xbe,
  0x7a, 0x12, 0x02, 0x3e, 0x4c, 0xa9, 0xe2, 0x3d, 0xfb, 0x8c, 0x1a, 0xbe,
  0x99, 0x45, 0x9b, 0x3d, 0x16, 0xbb, 0xf0, 0xbe, 0xda, 0x20, 0x85, 0xbe,
  0x25, 0x56, 0x1d, 0x3e, 0xfa, 0x43, 0xa7, 0xbe, 0xb3, 0xd4, 0xab, 0x3e,
  0x52, 0x7b, 0x42, 0xbe, 0x44, 0xa9, 0xf1, 0x3d, 0x59, 0xa9, 0xac, 0x3e,
  0x51, 0xe0, 0x82, 0xbe, 0x90, 0xe4, 0xa5, 0xbe, 0xe6, 0x8b, 0xb7, 0xbc,
  0xa9, 0xe6, 0x07, 0xbd, 0x10, 0x0b, 0x5d, 0xbe, 0x02, 0xd7, 0xea, 0xbe,
  0x9a, 0xb8, 0x32, 0x3e, 0xd2, 0xa5, 0x8b, 0x3e, 0x47, 0xb7, 0xfb, 0xbd,
  0xa4, 0x04, 0xcb, 0xbd, 0x7e, 0x0a, 0x7d, 0xbd, 0xc9, 0xee, 0xd2, 0x3d,
  0x66, 0x69, 0x2b, 0xbe, 0xde, 0x46, 0x14, 0xbe, 0xdd, 0x93, 0x6c, 0xbe,
  0xa2, 0x89, 0xfd, 0x3e, 0x7d, 0x2d, 0x9f, 0x3b, 0x45, 0x7e, 0x95, 0xbd,
  0x18, 0xd7, 0x4f, 0xbe, 0x16, 0x9a, 0xa1, 0xbe, 0xad, 0xd3, 0xe5, 0x3c,
  0xb7, 0x94, 0x92, 0xbe, 0xfa, 0x4a, 0x63, 0xbe, 0x39, 0xf9, 0x87, 0xbc,
  0xd8, 0x13, 0xde, 0xbd, 0xc9, 0x6d, 0x08, 0xbe, 0xae, 0x1d, 0x74, 0xbe,
  0x43, 0x2c, 0xb6, 0xbe, 0xe2, 0x63, 0x39, 0xbe, 0xbf, 0xcb, 0x47, 0xbe,
  0x7d, 0x17, 0x2a, 0xbd, 0xf4, 0xe6, 0x90, 0xbd, 0xc9, 0x27, 0x54, 0xbe,
  0x88, 0x1c, 0x99, 0xbd, 0xdb, 0x1e, 0x8b, 0xbd, 0xca, 0x6a, 0xad, 0xbd,
  0x48, 0x66, 0x2a, 0xbe, 0xb9, 0x09, 0xcc, 0xbd, 0xc6, 0x68, 0xf2, 0x3e,
  0xc8, 0xdd, 0x50, 0xbd, 0xe1, 0xa8, 0x2b, 0xbe, 0xb3, 0x2c, 0x04, 0x3e,
  0x5a, 0x4f, 0xf4, 0x3e, 0x46, 0xf5, 0x89, 0x3d, 0xe7, 0xb8, 0xb4, 0xbd,
  0x42, 0xc7, 0xaa, 0x3e, 0xfb, 0xc9, 0xac, 0x3d, 0xb4, 0xab, 0x19, 0x39,
  0x17, 0xe8, 0x00, 0x3e, 0x6d, 0x76, 0xc6, 0x3d, 0x52, 0xe2, 0x1c, 0xbd,
  0xb3, 0xe7, 0x5e, 0xbc, 0x51, 0x9b, 0x78, 0xbe, 0xd8, 0xe3, 0x07, 0xbf,
  0x2b, 0x3b, 0xac, 0x3b, 0xd1, 0xe6, 0x25, 0xbe, 0x6e, 0xd1, 0xdc, 0xbd,
  0x35, 0x89, 0x31, 0x3e, 0x35, 0xfb, 0x0f, 0x3e, 0x18, 0xe2, 0x77, 0xbd,
  0x37, 0x8a, 0x76, 0xbe, 0x13, 0xd2, 0x0e, 0xbf, 0x78, 0x2a, 0xb4, 0xbc,
  0x09, 0x6f, 0x57, 0xbd, 0x7b, 0x5d, 0xa1, 0x3d, 0x62, 0xb9, 0x4b, 0xbd,
  0xc3, 0xfc, 0xa0, 0x3c, 0x7f, 0x4e, 0x0a, 0xbe, 0x00, 0x61, 0x6a, 0xbd,
  0x20, 0xc0, 0xde, 0xbe, 0x58, 0x40, 0x2d, 0x3e, 0x11, 0x17, 0x0f, 0x3d,
  0x96, 0x94, 0x81, 0x3e, 0x8d, 0x30, 0x0a, 0x3d, 0xea, 0x22, 0x82, 0xbb,
  0xad, 0x27, 0xc6, 0xbd, 0x2c, 0x9d, 0xb8, 0xbd, 0xbe, 0xc6, 0xe2, 0xbe,
  0x39, 0xce, 0x4a, 0xbe, 0x05, 0x92, 0x99, 0xbd, 0x78, 0x04, 0x00, 0x3e,
  0x9c, 0x6b, 0x4a, 0xbe, 0x53, 0x32, 0x63, 0xbd, 0xd4, 0x64, 0x6f, 0xbc,
  0x84, 0x45, 0xc7, 0xbd, 0x35, 0x5d, 0xbe, 0x3d, 0x2b, 0x4b, 0x14, 0xbe,
  0xca, 0x36, 0xdf, 0x3d, 0x49, 0x8e, 0x29, 0xbe, 0x46, 0x4d, 0x6d, 0xbd,
  0xed, 0x43, 0xac, 0xbd, 0x04, 0xf3, 0x12, 0x3f, 0x00, 0x3c, 0x0f, 0x3e,
  0x2f, 0xed, 0xc6, 0xbd, 0x6a, 0xaa, 0x28, 0xbe, 0xdb, 0x3f, 0xaf, 0xbd,
  0x42, 0x43, 0x72, 0xbc, 0xc0, 0xd0, 0xc6, 0xbd, 0x5d, 0x38, 0x93, 0xbd,
  0x10, 0xb9, 0xca, 0x3d, 0xa8, 0x9a, 0x55, 0xbd, 0xa8, 0xf3, 0x6d, 0x3e,
  0x9f, 0xad, 0x1f, 0xbe, 0x6b, 0xb8, 0xda, 0xbd, 0x5e, 0x8e, 0x83, 0x3d,
  0xe1, 0xf9, 0xe0, 0xbd, 0xa1, 0x8a, 0xcd, 0x3d, 0x24, 0x7b, 0xd0, 0x3d,
  0xab, 0x85, 0x47, 0x3d, 0x64, 0x4f, 0xc6, 0xbc, 0xe4, 0xcc, 0xd1, 0xbc,
  0x2e, 0x61, 0x1c, 0xbf, 0xcc, 0x7b, 0x9c, 0xbe, 0x76, 0x83, 0x95, 0xbd,
  0xad, 0x40, 0x08, 0xbf, 0xec, 0x71, 0xd4, 0xbd, 0xf1, 0x9f, 0x8d, 0xbe,
  0x6c, 0x62, 0xeb, 0xbc, 0x39, 0x38, 0xc8, 0x3d, 0x0c, 0xba, 0x32, 0x3e,
  0x22, 0x5f, 0xaa, 0xbe, 0xad, 0x5d, 0x8b, 0xbd, 0xf5, 0xec, 0x05, 0xbf,
  0x48, 0xaa, 0x75, 0xbd, 0xfe, 0x8c, 0x8a, 0x3e, 0x6b, 0xa5, 0x95, 0xbe,
  0x32, 0x88, 0x1b, 0x3e, 0xb2, 0xdf, 0xf7, 0x3d, 0x08, 0x68, 0x19, 0x3d,
  0x48, 0x4e, 0xda, 0xbc, 0x0c, 0xf7, 0x9c, 0x3d, 0x4f, 0x82, 0xbb, 0x3e,
  0x12, 0x39, 0x6e, 0x3e, 0x59, 0x71, 0x81, 0xbd, 0x40, 0xa0, 0x4e, 0x3d,
  0xfc, 0x36, 0x98, 0xbe, 0x86, 0x37, 0xae, 0x3c, 0x2c, 0xae, 0x41, 0xbe,
  0xb9, 0x9d, 0x24, 0x3d, 0x5f, 0xf8, 0x1e, 0x3e, 0x09, 0xcb, 0x2f, 0xbf,
  0xdb, 0x13, 0x54, 0x3d, 0xbf, 0xa3, 0x8d, 0x3e, 0xb3, 0xbe, 0x11, 0x3e,
  0xf1, 0x84, 0x14, 0x3e, 0x04, 0xcf, 0x05, 0xbe, 0x61, 0x73, 0x22, 0xbd,
  0x05, 0x09, 0x96, 0x3e, 0xa5, 0x13, 0x52, 0xbc, 0x46, 0x66, 0xfe, 0xbd,
  0x6f, 0x73, 0xa2, 0xbd, 0x1c, 0x55, 0xd7, 0xbe, 0xab, 0x72, 0xb1, 0xbd,
  0xfa, 0xe0, 0x4c, 0xbe, 0x0c, 0x79, 0x80, 0x3d, 0x32, 0x9d, 0x2a, 0x3e,
  0x3c, 0x62, 0xfb, 0xbe, 0x35, 0x97, 0x25, 0x3d, 0x0c, 0xfd, 0xa3, 0xbe,
  0x32, 0xf2, 0xaa, 0xbe, 0x11, 0x18, 0x59, 0x3e, 0x59, 0xf8, 0x70, 0xbe,
  0x5e, 0x2a, 0x04, 0x3e, 0x52, 0xcc, 0x7e, 0x3b, 0x90, 0x49, 0x1a, 0xbe,
  0xc2, 0x58, 0xc3, 0x3d, 0x81, 0xb6, 0x00, 0xbe, 0x0a, 0x54, 0xbe, 0xbd,
  0x4a, 0x6c, 0xff, 0xbe, 0x77, 0x89, 0x68, 0xbe, 0x2c, 0x08, 0x94, 0xbe,
  0x2d, 0x67, 0xcd, 0xbe, 0x94, 0x08, 0xd7, 0x3d, 0x8a, 0x07, 0x98, 0xbe,
  0x22, 0x31, 0xbb, 0xbd, 0xf7, 0xa2, 0x02, 0xbf, 0xdc, 0xcf, 0x86, 0xbe,
  0x02, 0xd4, 0xa8, 0xbd, 0xb9, 0xeb, 0x35, 0xbf, 0x6d, 0xdf, 0x2c, 0xbe,
  0x0e, 0x24, 0xc5, 0xbd, 0x95, 0xc7, 0x87, 0xbc, 0xbd, 0xa2, 0x83, 0xbb,
  0x04, 0x96, 0xd1, 0x3d, 0x47, 0x9d, 0x22, 0xbe, 0x23, 0xec, 0x3c, 0xbd,
  0xfc, 0xda, 0x36, 0x3d, 0xa3, 0x6c, 0x65, 0xbd, 0x40, 0x3c, 0x4a, 0x3d,
  0xfe, 0xbf, 0x03, 0xbd, 0xa9, 0x17, 0x62, 0x3d, 0x6a, 0x7d, 0x61, 0x3d,
  0x88, 0x35, 0xdc, 0x3e, 0x3d, 0x57, 0x85, 0xbd, 0x74, 0x89, 0xd8, 0x3e,
  0xc4, 0xaf, 0x1c, 0xbe, 0xe9, 0x5c, 0x1b, 0x3e, 0x29, 0xdf, 0xa6, 0x3d,
  0x60, 0xcb, 0x84, 0xbe, 0x84, 0x6b, 0x41, 0xbf, 0x46, 0xa6, 0x3e, 0x3d,
  0x94, 0xe2, 0x22, 0xbe, 0xde, 0x02, 0xa9, 0x3d, 0xef, 0x11, 0x73, 0x3c,
  0x6c, 0x12, 0x21, 0xbe, 0xa3, 0x1d, 0x1a, 0x3d, 0xa3, 0xd8, 0x0b, 0xbe,
  0x80, 0xb8, 0x9e, 0x3d, 0xaa, 0x11, 0x36, 0xbd, 0xd4, 0x6c, 0x91, 0xbe,
  0xc3, 0x56, 0x7f, 0x3e, 0xec, 0x7c, 0x65, 0x3e, 0x27, 0xd2, 0x32, 0xbe,
  0x16, 0xc8, 0x2f, 0xbd, 0xb3, 0x78, 0x49, 0xbe, 0xd4, 0xf4, 0x07, 0x3d,
  0x32, 0xea, 0xda, 0x3e, 0x3e, 0xbe, 0xa5, 0xbe, 0xa8, 0xa8, 0x23, 0x3d,
  0xc8, 0x3c, 0x69, 0x3e, 0x22, 0x6d, 0x0f, 0xbe, 0xa4, 0x12, 0x71, 0xbe,
  0x6c, 0x28, 0x97, 0xbd, 0xf9, 0x3b, 0xc9, 0x3d, 0x8c, 0x14, 0x2c, 0xbe,
  0x88, 0x65, 0x85, 0xbe, 0x68, 0x90, 0x11, 0x3e, 0x46, 0xf6, 0x28, 0x3d,
  0x79, 0x2b, 0x24, 0x3d, 0x8a, 0x53, 0xd6, 0x3b, 0x96, 0x0a, 0x29, 0xbe,
  0x09, 0xd2, 0x7b, 0x3c, 0x32, 0x09, 0x2f, 0xbe, 0x12, 0x39, 0x7f, 0xbe,
  0x2a, 0x38, 0x8b, 0x3e, 0x0a, 0x2a, 0xfa, 0x3e, 0xba, 0x61, 0xcf, 0x3d,
  0x2b, 0xc4, 0x99, 0x3c, 0xb6, 0x4a, 0x0e, 0x3f, 0x55, 0x3c, 0x93, 0xbe,
  0x9b, 0x10, 0x7a, 0xbd, 0x9d, 0x16, 0xa0, 0x3d, 0xdc, 0x17, 0xe2, 0x3d,
  0x41, 0xee, 0x89, 0x3e, 0x59, 0x81, 0x38, 0xbe, 0x51, 0x8c, 0xec, 0xbc,
  0x61, 0x66, 0xbb, 0xbe, 0xeb, 0xa8, 0xc0, 0x3d, 0x90, 0x44, 0x09, 0xbd,
  0xaa, 0x03, 0x7f, 0x3c, 0x9b, 0x6c, 0xde, 0x3d, 0xa7, 0x99, 0x20, 0xbe,
  0xc3, 0x90, 0x9b, 0x3e, 0xe2, 0xef, 0xc4, 0xbc, 0xb5, 0x11, 0x95, 0xbe,
  0x16, 0xaa, 0x95, 0x3e, 0xdc, 0x12, 0x62, 0xbd, 0xee, 0x1c, 0xbe, 0xbd,
  0xc8, 0x82, 0x82, 0x3e, 0x50, 0x96, 0x80, 0xbe, 0xdf, 0x37, 0x46, 0xbd,
  0x36, 0xab, 0x20, 0xbe, 0xdb, 0x42, 0xb5, 0xbe, 0x8f, 0x06, 0x05, 0x3e,
  0xf2, 0xc7, 0xbc, 0xbc, 0xab, 0xb4, 0xd6, 0xbd, 0xb0, 0x4a, 0x93, 0xbe,
  0x51, 0x79, 0x11, 0xbe, 0xb4, 0xf9, 0xf0, 0xbd, 0xaf, 0x64, 0x25, 0xbe,
  0x50, 0x2e, 0x3b, 0x3d, 0xe6, 0xe2, 0xc1, 0x3d, 0xec, 0x79, 0xaa, 0xbe,
  0x76, 0x5b, 0xe5, 0xbd, 0x98, 0xa1, 0x37, 0xbf, 0x9e, 0x24, 0x3c, 0xbe,
  0x17, 0x42, 0x9d, 0x3d, 0x08, 0xdf, 0x3f, 0xbe, 0xd8, 0x86, 0x81, 0x3e,
  0x88, 0xc3, 0xb0, 0x3d, 0xd6, 0xa3, 0xc9, 0x3d, 0xe3, 0x39, 0x7b, 0xbe,
  0x95, 0xb5, 0x55, 0xbd, 0xbf, 0x05, 0xd0, 0x3e, 0x03, 0x50, 0x4a, 0x3d,
  0x8a, 0xfd, 0x9a, 0xbd, 0x4b, 0xc4, 0x73, 0xbe, 0xc0, 0x23, 0x3a, 0xbf,
  0x6c, 0x67, 0x55, 0x3c, 0x77, 0xc7, 0x89, 0xbe, 0x64, 0x8f, 0x9b, 0x3e,
  0x8c, 0xc1, 0x06, 0x3e, 0x4a, 0xcd, 0x0f, 0xbf, 0x37, 0xa5, 0xe7, 0x3d,
  0xfe, 0xed, 0x4b, 0xbe, 0x48, 0x25, 0x38, 0xbe, 0x27, 0x1e, 0xef, 0xbc,
  0x01, 0xb2, 0x20, 0xbe, 0xff, 0x31, 0x22, 0x3c, 0x0a, 0xc4, 0x8b, 0xbe,
  0xe1, 0x1b, 0x1c, 0x3d, 0xda, 0x66, 0xc7, 0xbd, 0xc4, 0xeb, 0xb6, 0xbd,
  0x0e, 0xbf, 0x00, 0x3d, 0x09, 0x66, 0x3c, 0xbd, 0x7b, 0xea, 0x6e, 0xbc,
  0xd7, 0x2d, 0x99, 0xbd, 0x21, 0x2c, 0x52, 0x3d, 0x99, 0x4b, 0xc2, 0xbd,
  0x18, 0x02, 0xb8, 0x3d, 0x6c, 0x3f, 0x04, 0xbd, 0x3d, 0xaa, 0xb2, 0x3c,
  0x42, 0x3d, 0x1e, 0xbc, 0x96, 0x26, 0xf5, 0xbc, 0xdf, 0xae, 0x3d, 0x3d,
  0xc1, 0x3c, 0x1e, 0x3e, 0x5b, 0x67, 0xb8, 0x3e, 0x77, 0xfd, 0xd3, 0x3c,
  0x80, 0x6e, 0x55, 0xbc, 0x75, 0x31, 0x06, 0x3c, 0x8c, 0x9e, 0x3e, 0x3e,
  0xf5, 0x5e, 0x20, 0x3d, 0x0d, 0x3c, 0x27, 0xbd, 0xaa, 0xbe, 0xcb, 0xbd,
  0xfc, 0x27, 0xc9, 0xbc, 0x2d, 0xe4, 0x5d, 0x3d, 0xe9, 0xab, 0x12, 0x3d,
  0xde, 0x6a, 0x0d, 0xbe, 0x54, 0x57, 0xae, 0xbd, 0x8c, 0x8a, 0xba, 0x3d,
  0x7a, 0xf4, 0x32, 0x3c, 0x45, 0xa3, 0x01, 0xbd, 0xc2, 0x73, 0xa1, 0xbc,
  0xb9, 0x91, 0x3e, 0x3d, 0x26, 0xde, 0xff, 0xff, 0x10, 0x00, 0x00, 0x00,
  0x0a, 0x00, 0x00, 0x00, 0x1c, 0x00, 0x00, 0x00, 0x38, 0x00, 0x00, 0x00,
  0x04, 0x00, 0x00, 0x00, 0x10, 0x00, 0x00, 0x00, 0x04, 0x00, 0x00, 0x00,
  0x01, 0x00, 0x00, 0x00, 0x08, 0x00, 0x00, 0x00, 0x1a, 0x00, 0x00, 0x00,
  0x73, 0x65, 0x71, 0x75, 0x65, 0x6e, 0x74, 0x69, 0x61, 0x6c, 0x2f, 0x63,
  0x6f, 0x6e, 0x76, 0x32, 0x64, 0x5f, 0x31, 0x2f, 0x43, 0x6f, 0x6e, 0x76,
  0x32, 0x44, 0x00, 0x00, 0x9c, 0xdd, 0xff, 0xff, 0xa6, 0xde, 0xff, 0xff,
  0x04, 0x00, 0x00, 0x00, 0x80, 0x01, 0x00, 0x00, 0x17, 0x60, 0x1d, 0xbd,
  0x6f, 0xbb, 0x33, 0xbd, 0x69, 0xd8, 0x8a, 0xbd, 0xe0, 0x5b, 0xf9, 0x3d,
  0x0a, 0x8d, 0xee, 0xbc, 0x5e, 0xbd, 0x2b, 0xbe, 0x53, 0x40, 0x75, 0x3e,
  0xe9, 0x4d, 0x27, 0x3d, 0x2a, 0xe7, 0x36, 0x3e, 0x4c, 0xf1, 0x72, 0xbc,
  0x95, 0x37, 0x91, 0xbc, 0xa8, 0xd8, 0xad, 0x3e, 0x03, 0x7f, 0x94, 0xbe,
  0xde, 0x56, 0x84, 0xbc, 0x4f, 0x55, 0xc9, 0x3d, 0x35, 0x9e, 0x9d, 0xbe,
  0x94, 0x95, 0xc0, 0xbb, 0x66, 0x34, 0xef, 0xbd, 0x16, 0xf5, 0x9d, 0x3e,
  0x53, 0xeb, 0x28, 0x3d, 0xbd, 0xa9, 0x12, 0x3c, 0x71, 0x5c, 0x88, 0x3e,
  0x03, 0xbd, 0xd5, 0x3c, 0x11, 0x62, 0xbb, 0x3d, 0xaa, 0x59, 0xa1, 0x3e,
  0x8e, 0xe0, 0xab, 0x3e, 0x53, 0x83, 0x9b, 0x3e, 0x18, 0x49, 0x67, 0xbd,
  0x3f, 0xa7, 0x1a, 0x3e, 0xa1, 0x33, 0x85, 0xbc, 0xe4, 0x97, 0x41, 0xbe,
  0xed, 0x25, 0x4d, 0xbe, 0xb5, 0xc3, 0xbf, 0xbb, 0x7e, 0x07, 0x5a, 0x3c,
  0x8d, 0xa1, 0x50, 0xbd, 0xa4, 0xf9, 0x43, 0xbd, 0x48, 0x36, 0x2a, 0xbd,
  0x10, 0x49, 0x5d, 0x3e, 0x5c, 0x3b, 0x73, 0xbe, 0x43, 0x7b, 0xec, 0x3c,
  0xd8, 0xff, 0x9b, 0x3d, 0x41, 0x18, 0x54, 0xbd, 0x26, 0xac, 0xe1, 0x3a,
  0x74, 0x09, 0x02, 0xbd, 0xdc, 0xdf, 0xea, 0xbc, 0xd1, 0x02, 0x39, 0x3e,
  0x2e, 0xa2, 0x32, 0x3c, 0x63, 0x88, 0x90, 0xbc, 0xe5, 0xfc, 0x0a, 0x3f,
  0xa0, 0x9f, 0x2a, 0xbe, 0x54, 0x74, 0x69, 0xbd, 0x6e, 0xf7, 0x07, 0x3d,
  0xe2, 0x95, 0x59, 0x3e, 0x66, 0x4e, 0x68, 0x3d, 0x21, 0x07, 0xac, 0xbe,
  0x76, 0xb6, 0x8c, 0x3b, 0x24, 0x13, 0x96, 0x3c, 0x71, 0xd3, 0x68, 0xbe,
  0x36, 0x7e, 0xc3, 0xbc, 0x32, 0x5c, 0xe5, 0x3c, 0xef, 0xa3, 0x0b, 0x3e,
  0xf2, 0xe9, 0x98, 0xbd, 0x52, 0xad, 0x44, 0xbe, 0xe9, 0xed, 0xf2, 0x3e,
  0xc1, 0x90, 0xe5, 0x3d, 0xe2, 0x39, 0x71, 0x3e, 0x68, 0xea, 0x29, 0xbe,
  0xb6, 0x1f, 0x96, 0x3e, 0x24, 0x64, 0x76, 0x3d, 0x69, 0xee, 0x26, 0xbe,
  0xdc, 0x50, 0x2c, 0xbe, 0x76, 0x30, 0xf6, 0xbd, 0xc7, 0xd7, 0x1f, 0xbe,
  0xb8, 0x46, 0x0f, 0x3e, 0xae, 0x13, 0xab, 0xbe, 0xba, 0xc0, 0x32, 0x3b,
  0x61, 0xc6, 0x81, 0xbc, 0xb4, 0x39, 0xe2, 0xbe, 0x81, 0x34, 0x0f, 0x3e,
  0x0c, 0xac, 0xe8, 0xbd, 0x66, 0x1f, 0x06, 0x3f, 0xb4, 0xb3, 0x2a, 0x3c,
  0xb6, 0x5d, 0xbb, 0x3d, 0xa6, 0x6b, 0xb9, 0x3d, 0xd9, 0x02, 0xc3, 0x3e,
  0xf1, 0x65, 0x4d, 0x3e, 0x24, 0x62, 0x78, 0x3e, 0x3a, 0x96, 0x74, 0x3d,
  0x41, 0x9b, 0xfa, 0xbd, 0xb3, 0x98, 0x16, 0x3e, 0xf6, 0x77, 0x91, 0xbe,
  0x0c, 0xee, 0x69, 0x3d, 0x13, 0xff, 0x33, 0xbe, 0x8f, 0x0e, 0x41, 0x3e,
  0xb9, 0xaa, 0x50, 0xbe, 0x58, 0x5f, 0x55, 0xbe, 0xfe, 0xdf, 0xff, 0xff,
  0x10, 0x00, 0x00, 0x00, 0x09, 0x00, 0x00, 0x00, 0x1c, 0x00, 0x00, 0x00,
  0x38, 0x00, 0x00, 0x00, 0x04, 0x00, 0x00, 0x00, 0x08, 0x00, 0x00, 0x00,
  0x04, 0x00, 0x00, 0x00, 0x03, 0x00, 0x00, 0x00, 0x01, 0x00, 0x00, 0x00,
  0x18, 0x00, 0x00, 0x00, 0x73, 0x65, 0x71, 0x75, 0x65, 0x6e, 0x74, 0x69,
  0x61, 0x6c, 0x2f, 0x63, 0x6f, 0x6e, 0x76, 0x32, 0x64, 0x2f, 0x43, 0x6f,
  0x6e, 0x76, 0x32, 0x44, 0x00, 0x00, 0x00, 0x00, 0x74, 0xdf, 0xff, 0xff,
  0x7e, 0xe0, 0xff, 0xff, 0x04, 0x00, 0x00, 0x00, 0xc0, 0x00, 0x00, 0x00,
  0x31, 0x7f, 0x40, 0xbd, 0x10, 0x79, 0xe0, 0xbd, 0x05, 0xa8, 0x2f, 0x3e,
  0xdc, 0x9a, 0x09, 0x3e, 0xee, 0x43, 0x02, 0xbe, 0xc3, 0xea, 0x73, 0xbe,
  0x77, 0x4c, 0x82, 0x3e, 0x71, 0x2e, 0xbe, 0xbe, 0xd1, 0xd9, 0x8d, 0xbe,
  0x09, 0x66, 0x06, 0x3e, 0x9b, 0x6a, 0x1d, 0x3e, 0x61, 0xcb, 0x92, 0xbe,
  0x00, 0x14, 0x49, 0xbd, 0xc7, 0x8f, 0x68, 0xbe, 0xe6, 0x2d, 0xe1, 0xbe,
  0xc2, 0xd0, 0x9d, 0x3e, 0x1d, 0xe9, 0x08, 0x3d, 0x84, 0xe1, 0xa2, 0xbd,
  0x9f, 0x88, 0x39, 0x3e, 0xf4, 0xf8, 0x60, 0x3e, 0x43, 0x9c, 0xea, 0xbe,
  0xd9, 0x8c, 0x06, 0xbe, 0xb9, 0xab, 0x90, 0xbd, 0x5c, 0x85, 0x90, 0xbe,
  0x58, 0xd3, 0x52, 0xbe, 0x21, 0x76, 0x74, 0x3e, 0x04, 0x28, 0x5d, 0x3e,
  0x14, 0x03, 0xb3, 0x3e, 0x41, 0x24, 0x0b, 0xbc, 0x48, 0x21, 0x3a, 0xbe,
  0xb2, 0xad, 0xaa, 0xbe, 0x45, 0x86, 0x80, 0x3e, 0xc6, 0x6c, 0x98, 0x3d,
  0x5d, 0x56, 0xb9, 0xbd, 0x86, 0xfe, 0x90, 0x3d, 0x71, 0x37, 0x82, 0x3e,
  0xdf, 0x87, 0x94, 0x3d, 0x38, 0x70, 0x24, 0xbe, 0x55, 0xb1, 0x8b, 0x3e,
  0x66, 0xf5, 0x35, 0xbe, 0x7c, 0x6f, 0x80, 0xbe, 0x78, 0x04, 0xd2, 0x3e,
  0xf4, 0x9f, 0x23, 0x3e, 0x56, 0xa3, 0x50, 0xbe, 0x84, 0xb7, 0x24, 0xbc,
  0x33, 0x0d, 0x75, 0xbe, 0x91, 0xd4, 0x99, 0xbe, 0x53, 0x51, 0x58, 0x3e,
  0x16, 0xe1, 0xff, 0xff, 0x10, 0x00, 0x00, 0x00, 0x08, 0x00, 0x00, 0x00,
  0x14, 0x00, 0x00, 0x00, 0x30, 0x00, 0x00, 0x00, 0x02, 0x00, 0x00, 0x00,
  0x03, 0x00, 0x00, 0x00, 0x10, 0x00, 0x00, 0x00, 0x19, 0x00, 0x00, 0x00,
  0x73, 0x65, 0x71, 0x75, 0x65, 0x6e, 0x74, 0x69, 0x61, 0x6c, 0x2f, 0x64,
  0x65, 0x6e, 0x73, 0x65, 0x5f, 0x31, 0x2f, 0x4d, 0x61, 0x74, 0x4d, 0x75,
  0x6c, 0x00, 0x00, 0x00, 0x84, 0xe0, 0xff, 0xff, 0x8e, 0xe1, 0xff, 0xff,
  0x04, 0x00, 0x00, 0x00, 0x00, 0x1c, 0x00, 0x00, 0x11, 0x88, 0xe3, 0x3d,
  0x71, 0x19, 0x6a, 0xbe, 0x34, 0x21, 0x61, 0xbd, 0x03, 0x49, 0x3b, 0xbf,
  0x21, 0x04, 0x20, 0x3e, 0x11, 0x3c, 0x1d, 0xbe, 0x12, 0xda, 0xf4, 0xbe,
  0xad, 0x9e, 0xab, 0x3e, 0xc2, 0x5e, 0x99, 0x3b, 0xc5, 0x84, 0x07, 0xbe,
  0xab, 0xd7, 0x71, 0x3e, 0xf3, 0xc8, 0xc5, 0xbe, 0x7d, 0x63, 0x00, 0x3e,
  0x7a, 0x8a, 0x9b, 0xbe, 0x44, 0x88, 0xb5, 0xbe, 0x59, 0x47, 0x9c, 0x3b,
  0x5f, 0xcf, 0x3b, 0x3e, 0x22, 0x1a, 0xba, 0x3d, 0x7d, 0xbb, 0xc7, 0xbe,
  0xa4, 0xb8, 0xde, 0xbe, 0x3c, 0xeb, 0x70, 0x3d, 0x3c, 0x50, 0x74, 0xbe,
  0x57, 0x72, 0xb2, 0xbe, 0x3c, 0x17, 0xb0, 0x3e, 0x3d, 0x24, 0xe6, 0x3d,
  0xcc, 0xd1, 0x97, 0x3e, 0x9a, 0x10, 0x1a, 0x3e, 0x29, 0x50, 0xf8, 0x3d,
  0xff, 0x8b, 0xb1, 0x3e, 0xfa, 0x94, 0x81, 0xbe, 0xad, 0x89, 0xb8, 0x3d,
  0xd4, 0x66, 0x84, 0x3d, 0xd1, 0xd2, 0xaa, 0x3d, 0x96, 0x60, 0x25, 0x3e,
  0xee, 0xa0, 0xc7, 0xbe, 0x67, 0x59, 0x1d, 0xbe, 0xb2, 0xb1, 0x1e, 0x3e,
  0x9a, 0xf7, 0x27, 0x3d, 0xc6, 0x1c, 0x95, 0xbe, 0x51, 0x54, 0x06, 0x3e,
  0xbe, 0xb5, 0x8e, 0x3d, 0x14, 0x85, 0x97, 0xbb, 0xe8, 0x4a, 0xa1, 0x3c,
  0x71, 0x83, 0x88, 0x3e, 0xb2, 0x1b, 0x5c, 0x3e, 0x0a, 0x6f, 0x8c, 0xbe,
  0xc8, 0xb4, 0x63, 0x3e, 0x88, 0x6e, 0x4a, 0xbc, 0x56, 0xcb, 0x0c, 0xbe,
  0x42, 0xd6, 0xa8, 0x3d, 0x5e, 0x56, 0xc1, 0xbe, 0xc1, 0x76, 0xb0, 0xbe,
  0x90, 0x81, 0x12, 0x3e, 0x4a, 0xdc, 0xc5, 0xbd, 0x39, 0x8b, 0x9f, 0xbe,
  0x4d, 0x67, 0xd9, 0x3d, 0x22, 0xd8, 0x92, 0x3d, 0x36, 0xcd, 0xb9, 0x3c,
  0x62, 0xde, 0xdb, 0x3d, 0x42, 0x84, 0x09, 0x3e, 0x3f, 0xd5, 0xca, 0x3e,
  0x84, 0x48, 0x9e, 0xbe, 0x58, 0x35, 0x8e, 0x3d, 0x85, 0xcb, 0x64, 0x3d,
  0xd7, 0xd6, 0x7e, 0xbd, 0x22, 0xd7, 0xf6, 0x3d, 0x47, 0xd0, 0x6a, 0xbe,
  0x0c, 0xf9, 0x6d, 0xbe, 0xce, 0xcd, 0x73, 0x3d, 0xde, 0xe1, 0x15, 0xbe,
  0x45, 0xaf, 0xdf, 0xbe, 0x88, 0xe5, 0x5f, 0x3d, 0xd6, 0x66, 0xf3, 0x3d,
  0xf4, 0x3e, 0x28, 0xbe, 0x62, 0xe8, 0x3b, 0x3e, 0xd1, 0x46, 0x96, 0x3c,
  0x52, 0x30, 0x91, 0x3e, 0xcf, 0xd3, 0x58, 0xbe, 0x20, 0x12, 0x5a, 0x3d,
  0xc0, 0xe9, 0xab, 0x3d, 0xad, 0x34, 0x05, 0x3c, 0x5f, 0x8e, 0x9b, 0x3d,
  0x40, 0xf9, 0x98, 0xbe, 0x00, 0x9f, 0x28, 0xbe, 0x6c, 0x06, 0x81, 0xbd,
  0x79, 0x33, 0x3a, 0xbe, 0xc7, 0x22, 0xfa, 0xbe, 0x0f, 0x01, 0x2b, 0x3e,
  0x5a, 0x2d, 0x13, 0x3c, 0x92, 0xd4, 0xad, 0xbe, 0x7f, 0x44, 0x4b, 0x3e,
  0xf0, 0x54, 0x88, 0xbe, 0x2f, 0xba, 0x1b, 0x3e, 0x83, 0xc4, 0x98, 0xbe,
  0x2e, 0x3d, 0x08, 0x3d, 0xee, 0x21, 0x34, 0x3d, 0x52, 0x60, 0x88, 0xbe,
  0x22, 0x45, 0xb3, 0x3a, 0x8a, 0x2e, 0x96, 0xbe, 0x17, 0x21, 0x85, 0xbe,
  0xfa, 0x92, 0x67, 0x3d, 0x0e, 0x6f, 0x0c, 0xbd, 0xce, 0x52, 0x9f, 0xbe,
  0xc7, 0xbc, 0x1b, 0xbe, 0xd5, 0xbe, 0x98, 0x3c, 0x60, 0x4b, 0x01, 0x3d,
  0x0e, 0x54, 0x36, 0xbd, 0x57, 0x8c, 0x66, 0xbe, 0xb8, 0x45, 0x11, 0x3e,
  0xf2, 0x54, 0x15, 0xbc, 0x13, 0xe8, 0xa6, 0xbd, 0x8e, 0x5d, 0x94, 0xbd,
  0x9d, 0x2d, 0x54, 0x3e, 0x47, 0xc3, 0x03, 0xbe, 0xfa, 0xb3, 0xe8, 0x3c,
  0x77, 0xf5, 0x1a, 0xbe, 0x45, 0xd1, 0x5b, 0x3e, 0x10, 0xd5, 0x04, 0xbe,
  0x18, 0xfb, 0xa0, 0xbd, 0xdb, 0xd2, 0xb7, 0x3e, 0x55, 0x8b, 0x58, 0x3d,
  0x01, 0xa7, 0xae, 0xbd, 0xe3, 0xaa, 0x47, 0x3d, 0x2a, 0xc3, 0x14, 0xbd,
  0xdd, 0xe0, 0xba, 0x3d, 0xb6, 0x1b, 0x46, 0xbe, 0xba, 0x54, 0x71, 0xbe,
  0x9d, 0xd7, 0x3a, 0xbe, 0x4f, 0xd3, 0xb7, 0xbd, 0xc2, 0x8f, 0xf6, 0xbc,
  0x63, 0x5d, 0x65, 0xbd, 0x03, 0xa8, 0x51, 0xbe, 0x0a, 0x03, 0x00, 0xbd,
  0x86, 0xec, 0x2e, 0xbe, 0x5e, 0x14, 0x95, 0xbe, 0x44, 0x61, 0x0e, 0x3e,
  0xe7, 0x0f, 0x5f, 0xbe, 0x8b, 0xa4, 0x96, 0x3d, 0xab, 0xfe, 0x29, 0x3e,
  0x27, 0x02, 0x42, 0x3e, 0xeb, 0x04, 0x93, 0x3d, 0x62, 0x6a, 0x91, 0xbd,
  0x6c, 0xa3, 0x21, 0x3e, 0xbc, 0xe5, 0x90, 0xbe, 0x67, 0xef, 0x1d, 0xbe,
  0x9a, 0x0f, 0x50, 0x3e, 0xb8, 0x6c, 0xde, 0x3d, 0x19, 0x8a, 0x74, 0x3e,
  0x7e, 0xef, 0x2a, 0x3e, 0x2e, 0x44, 0xd5, 0xbd, 0x4e, 0xa2, 0x46, 0x3d,
  0xfd, 0xfc, 0xda, 0x3e, 0xa8, 0x93, 0x2c, 0x3d, 0x9e, 0x2c, 0xa9, 0xbd,
  0x44, 0x62, 0x09, 0x3e, 0xa7, 0x7e, 0xa2, 0x3d, 0x56, 0xd4, 0x15, 0x3d,
  0x51, 0x10, 0x8c, 0x3e, 0x07, 0xad, 0x4d, 0x3e, 0xd9, 0x7b, 0x3e, 0xbe,
  0x76, 0xcd, 0x7f, 0xbd, 0xd5, 0x58, 0x92, 0xbe, 0xcd, 0xee, 0x63, 0x3d,
  0x77, 0xed, 0x17, 0xbe, 0x95, 0xf1, 0xc9, 0x3e, 0x9d, 0xab, 0x19, 0x3d,
  0xdc, 0x30, 0xb1, 0x3d, 0x4f, 0xb0, 0x03, 0x3e, 0xb6, 0x5f, 0x14, 0x3d,
  0x33, 0x66, 0xf7, 0x3d, 0x01, 0x18, 0xe6, 0xbd, 0x0c, 0xd5, 0xa6, 0xbd,
  0xa3, 0xc5, 0xbd, 0x3d, 0xc4, 0xaf, 0x27, 0x3c, 0xfc, 0xa5, 0x90, 0x3c,
  0x79, 0x99, 0x3c, 0xbe, 0x8b, 0xc9, 0x13, 0x3b, 0x05, 0xc8, 0xd1, 0xbd,
  0x31, 0x0f, 0x98, 0xbc, 0xc2, 0x4c, 0x81, 0x3c, 0x57, 0xed, 0xc6, 0x3d,
  0x03, 0x58, 0x59, 0xbd, 0x9d, 0x4f, 0x14, 0xbe, 0x43, 0x1c, 0x46, 0x3e,
  0x7e, 0x38, 0xb2, 0xbb, 0x82, 0xef, 0x96, 0x3d, 0xdd, 0xe2, 0xb4, 0x3d,
  0xfc, 0x38, 0x54, 0x3d, 0x37, 0xe6, 0x25, 0x3e, 0xbf, 0xea, 0x88, 0xbd,
  0x0e, 0xc3, 0x27, 0xbe, 0xe8, 0x74, 0x7e, 0x3c, 0xba, 0xc6, 0xb0, 0xbd,
  0xa7, 0x61, 0xde, 0xbd, 0x69, 0x6f, 0x7c, 0xbe, 0xcf, 0x43, 0xa7, 0x3d,
  0xbe, 0x58, 0x58, 0x3d, 0x47, 0xba, 0x79, 0xbe, 0x42, 0xd1, 0x88, 0xbd,
  0x48, 0x4b, 0xae, 0x3e, 0x0a, 0xa3, 0x84, 0xbe, 0x38, 0x63, 0x89, 0xbe,
  0x5b, 0x18, 0x0f, 0x3e, 0x9c, 0x5c, 0xe2, 0xbd, 0x48, 0xb4, 0x87, 0xbe,
  0x4d, 0xeb, 0x8c, 0xbd, 0xa6, 0x02, 0xc4, 0xbd, 0x39, 0xb6, 0xcd, 0xbd,
  0xeb, 0x85, 0x04, 0xbe, 0x77, 0x81, 0xe5, 0x3c, 0x30, 0x02, 0xda, 0xbd,
  0xa9, 0xd0, 0xb0, 0xbd, 0x55, 0xf5, 0xfe, 0x3d, 0x64, 0x24, 0x71, 0xbd,
  0xe8, 0x95, 0x91, 0xba, 0xc3, 0x40, 0x08, 0xbe, 0xbd, 0x88, 0xd6, 0x3d,
  0x9d, 0x21, 0x38, 0x3d, 0xdf, 0x16, 0x03, 0x3e, 0x46, 0xa1, 0x6d, 0xbe,
  0x5c, 0x17, 0xf8, 0xbd, 0xf2, 0x21, 0x9c, 0xbc, 0x34, 0xf4, 0x7d, 0x3d,
  0xbe, 0xcb, 0x68, 0xbe, 0x78, 0xcf, 0x47, 0xbb, 0x6b, 0x89, 0x96, 0x3d,
  0x96, 0x14, 0x9a, 0x3e, 0x23, 0xdf, 0x9d, 0x3d, 0x34, 0x2c, 0x08, 0x3d,
  0xfc, 0xce, 0xbe, 0x3b, 0x5d, 0x91, 0xa1, 0xbc, 0x86, 0x0f, 0x4e, 0x3d,
  0x1e, 0x28, 0x05, 0xbd, 0xbc, 0xf0, 0x46, 0x3d, 0xbc, 0xca, 0xec, 0x3e,
  0xfc, 0xf8, 0x0e, 0x3e, 0xc2, 0xb1, 0x89, 0xbc, 0x82, 0x98, 0xfa, 0x3c,
  0x56, 0xce, 0x7a, 0x3e, 0xbd, 0x85, 0x10, 0xbd, 0x88, 0x30, 0x93, 0xbd,
  0xf2, 0x49, 0x09, 0x3d, 0x29, 0x42, 0x7b, 0x3f, 0x5e, 0x57, 0xb5, 0x3d,
  0x75, 0xa2, 0x08, 0x3f, 0xc1, 0xbf, 0x18, 0x3d, 0x9a, 0xae, 0x0b, 0x3d,
  0x11, 0x0b, 0xa6, 0xbd, 0xcd, 0xc7, 0x47, 0xbd, 0x40, 0x65, 0xe5, 0xbc,
  0x16, 0x1d, 0xd4, 0x3e, 0xc3, 0x06, 0xd9, 0x3d, 0x5d, 0x9c, 0x7d, 0xbd,
  0x27, 0x0c, 0xb5, 0x3d, 0x21, 0xdb, 0x79, 0x3d, 0x2c, 0xcb, 0x16, 0xbd,
  0xbe, 0xb9, 0x95, 0x3d, 0x85, 0xf1, 0x26, 0xbd, 0xac, 0x43, 0xcc, 0x3f,
  0xb3, 0x69, 0x84, 0x3b, 0x5c, 0x06, 0x50, 0x3e, 0xfd, 0x49, 0x10, 0x3e,
  0x4a, 0x0d, 0x41, 0x3d, 0xfd, 0x67, 0x18, 0xbe, 0x00, 0x28, 0xd1, 0xbd,
  0x2c, 0xd0, 0x71, 0x3d, 0x68, 0x25, 0x1c, 0xbc, 0x69, 0xf9, 0x72, 0x3d,
  0x21, 0x99, 0x74, 0xbe, 0x34, 0x60, 0xc7, 0x3b, 0x7d, 0x07, 0x88, 0xbd,
  0x35, 0x12, 0x1d, 0xbc, 0x81, 0xf4, 0x1c, 0x3d, 0x2c, 0xff, 0xaf, 0x3c,
  0x86, 0xca, 0x63, 0x3f, 0xe5, 0xde, 0x3c, 0x3d, 0x3d, 0x33, 0x3b, 0x3d,
  0x46, 0xf0, 0xbe, 0x3d, 0x67, 0x65, 0x89, 0x3c, 0xb2, 0x8b, 0x56, 0xbc,
  0x30, 0x6b, 0x4e, 0xbd, 0x37, 0xde, 0x23, 0x3d, 0x6a, 0x65, 0x49, 0xbd,
  0x96, 0x7a, 0xb1, 0x3c, 0x43, 0x1d, 0x50, 0xbc, 0x6b, 0xcd, 0x9a, 0x3c,
  0xa1, 0x14, 0x90, 0x3d, 0xa9, 0x24, 0x2a, 0xbd, 0x1b, 0xbf, 0x28, 0x3d,
  0xb3, 0x97, 0x52, 0x3c, 0x28, 0x08, 0x56, 0x3f, 0x9f, 0x13, 0x34, 0x3d,
  0x53, 0x4a, 0x96, 0x3d, 0x8b, 0x4c, 0x45, 0x3d, 0x03, 0x80, 0x9e, 0x3d,
  0xc0, 0xeb, 0xc3, 0x3d, 0x30, 0x69, 0xa6, 0xbd, 0xe8, 0xa6, 0x09, 0x3e,
  0xc1, 0x48, 0x1d, 0x3d, 0x22, 0x3c, 0x71, 0x3d, 0xc1, 0xbb, 0xc5, 0xbc,
  0xc9, 0x77, 0xfe, 0x3c, 0xb3, 0xb5, 0xb9, 0x3d, 0x1f, 0x46, 0xac, 0xbc,
  0xe9, 0xb1, 0xa4, 0x3c, 0x5b, 0x39, 0x2e, 0x3d, 0x6d, 0xbe, 0x7e, 0x3f,
  0x67, 0x7a, 0x30, 0x3d, 0x53, 0x06, 0x92, 0x3e, 0x5b, 0xd3, 0x8f, 0x3c,
  0x17, 0xeb, 0xaa, 0x3d, 0x21, 0xf6, 0x19, 0xbc, 0x6a, 0x55, 0x16, 0xbd,
  0xf3, 0x6a, 0x21, 0x3e, 0x4d, 0xc9, 0xe8, 0x3e, 0x6a, 0xcc, 0x30, 0x3e,
  0xbc, 0x64, 0xd9, 0xbd, 0xd2, 0xb4, 0x44, 0x3d, 0x34, 0x18, 0xaf, 0x3e,
  0xe0, 0x17, 0x8c, 0xbc, 0x94, 0x74, 0x89, 0x3d, 0x82, 0xe6, 0x8b, 0xbc,
  0xc6, 0x59, 0xba, 0x3f, 0x12, 0x24, 0xca, 0x3d, 0x9f, 0xd9, 0x88, 0x3e,
  0xd3, 0xa8, 0x30, 0xbc, 0x1d, 0xf0, 0x29, 0x3d, 0xf2, 0x12, 0x9a, 0x3c,
  0x07, 0xe1, 0x81, 0xbc, 0x3c, 0x3f, 0x02, 0x3e, 0xfd, 0xe0, 0xa8, 0xbc,
  0xd1, 0xbd, 0x19, 0x3e, 0xf6, 0x56, 0xb4, 0x3b, 0x9f, 0x65, 0x93, 0xbc,
  0x93, 0x96, 0xff, 0xbb, 0x6c, 0x15, 0xd4, 0x3c, 0x93, 0xc2, 0xb2, 0x3d,
  0x2e, 0x2b, 0x27, 0xbe, 0xb0, 0x2a, 0xf2, 0x3d, 0xa5, 0x96, 0xe6, 0xbe,
  0xb8, 0x74, 0x2a, 0x3e, 0x7d, 0x3a, 0x3a, 0xbe, 0xb1, 0x22, 0x3e, 0xbe,
  0xe0, 0xc1, 0xbe, 0x3e, 0x1b, 0xd1, 0x58, 0x3d, 0xf6, 0xd1, 0x2c, 0xbe,
  0xae, 0xcc, 0xbc, 0xbc, 0xc7, 0x46, 0x20, 0xbe, 0x72, 0x4a, 0x8a, 0x3d,
  0xaf, 0x94, 0xb0, 0xbe, 0xcd, 0x2a, 0xe8, 0xbd, 0xc0, 0xa7, 0xbf, 0xbb,
  0xca, 0x19, 0x38, 0x3e, 0xe8, 0x51, 0x00, 0x3e, 0xa0, 0x78, 0xda, 0xbe,
  0xd0, 0x6f, 0xa6, 0xbe, 0x2f, 0xb2, 0x80, 0x3e, 0xa2, 0x4a, 0xa1, 0xbe,
  0x61, 0x7c, 0xc2, 0xbe, 0x5e, 0x92, 0x72, 0x3e, 0x03, 0x3c, 0xfd, 0x3d,
  0x09, 0x88, 0x2c, 0x3e, 0x10, 0x8a, 0xfb, 0x3c, 0xed, 0x2e, 0x32, 0xbe,
  0xd3, 0xb2, 0x34, 0x3e, 0xfb, 0xc2, 0xa7, 0xbe, 0xa8, 0x6d, 0x86, 0x3d,
  0x44, 0x7c, 0xeb, 0x3d, 0xca, 0xb5, 0xca, 0x3b, 0xa8, 0x62, 0xce, 0x3d,
  0xe0, 0xc1, 0x8e, 0xbe, 0x66, 0x25, 0xe4, 0xbd, 0x74, 0x7e, 0x80, 0x3e,
  0xd7, 0xa9, 0x2b, 0xbe, 0xf0, 0x9a, 0xf0, 0xbe, 0x81, 0xb5, 0x60, 0x3e,
  0x19, 0x35, 0x19, 0x3c, 0xff, 0xcf, 0x57, 0xbc, 0x31, 0x38, 0xb3, 0x3d,
  0xca, 0x72, 0x93, 0x3c, 0xe0, 0xec, 0x9e, 0x3e, 0x07, 0x60, 0xb0, 0xbe,
  0x29, 0xfb, 0x2e, 0x3e, 0x92, 0xad, 0xf5, 0x3d, 0x44, 0xa0, 0x73, 0xbd,
  0xe2, 0x30, 0xc4, 0x3d, 0xb2, 0xb5, 0xca, 0xbe, 0xb0, 0x2d, 0xb4, 0xbd,
  0xe6, 0x4e, 0xa7, 0x3c, 0xb0, 0xba, 0x62, 0xbe, 0x04, 0x0e, 0x35, 0xbe,
  0x93, 0x1a, 0x8a, 0xbd, 0x2c, 0x52, 0xc9, 0xbb, 0x1d, 0xed, 0xcc, 0xbd,
  0x13, 0x26, 0x5e, 0x3e, 0x4e, 0x4b, 0x70, 0x3d, 0xec, 0x21, 0xa1, 0x3e,
  0x5d, 0x2d, 0xd9, 0xbd, 0x41, 0x0b, 0xe7, 0x3d, 0x39, 0xf0, 0x79, 0x3d,
  0x33, 0x74, 0x0f, 0x3d, 0xbc, 0xc0, 0x08, 0x3d, 0xe2, 0xc9, 0x67, 0xbe,
  0x8f, 0xb7, 0x89, 0xbd, 0x54, 0x37, 0x6f, 0x3e, 0x13, 0x37, 0x12, 0xbe,
  0x04, 0xb4, 0xc9, 0xbe, 0x7f, 0xab, 0x71, 0x3d, 0x1d, 0xda, 0xf1, 0x3d,
  0x5e, 0x11, 0x1b, 0xbe, 0xb7, 0x83, 0x23, 0x3e, 0xa3, 0xf0, 0x72, 0x3d,
  0x7f, 0xdd, 0xe6, 0x3c, 0xe2, 0xdb, 0x41, 0xbe, 0x50, 0xb3, 0x68, 0x3e,
  0x4e, 0xba, 0x58, 0x3d, 0xeb, 0x7e, 0x9d, 0xbd, 0x48, 0x15, 0x84, 0x3d,
  0xe6, 0xa9, 0xe2, 0xbe, 0x6a, 0x25, 0x1a, 0xbe, 0x08, 0xef, 0xd1, 0x3c,
  0x78, 0xa2, 0x63, 0xbe, 0xef, 0x15, 0x20, 0xbf, 0x9d, 0xd2, 0xdf, 0xbd,
  0x00, 0x1f, 0x19, 0xbd, 0x95, 0x24, 0x12, 0xbe, 0x47, 0xb1, 0x10, 0x3e,
  0x3e, 0xda, 0x2a, 0xbe, 0xda, 0xd8, 0x5e, 0x3d, 0x78, 0x12, 0x59, 0xbe,
  0x34, 0x88, 0x5b, 0xbd, 0x3b, 0x3a, 0x3d, 0xbc, 0x82, 0x5e, 0x44, 0xbe,
  0x1b, 0x4b, 0xa9, 0x3c, 0xf1, 0x97, 0xa0, 0xbe, 0x4e, 0x82, 0x51, 0xbe,
  0xc2, 0xf1, 0x95, 0x3d, 0x31, 0x8b, 0xe2, 0xbc, 0xd1, 0x94, 0x9c, 0xbe,
  0x8b, 0xdd, 0x7b, 0xbd, 0x2c, 0xbf, 0x00, 0xbd, 0xdc, 0xb6, 0x9d, 0xb9,
  0x06, 0x62, 0x8b, 0x3d, 0x45, 0x0f, 0x38, 0xbe, 0xb3, 0x21, 0x25, 0x3d,
  0xdd, 0x4f, 0x8c, 0x3c, 0x3f, 0x17, 0xab, 0x3c, 0x6e, 0x90, 0xa3, 0xbd,
  0x47, 0xa8, 0x48, 0xbe, 0x72, 0x03, 0xa7, 0xbd, 0x03, 0x4e, 0x99, 0xbd,
  0x69, 0x28, 0x49, 0xbe, 0x5e, 0x20, 0xf4, 0x3d, 0x6a, 0xc2, 0x33, 0x3d,
  0xb1, 0xd7, 0x02, 0xbe, 0xa6, 0xe1, 0xe9, 0x3a, 0x73, 0x82, 0xf8, 0x3b,
  0xa2, 0xa5, 0xb0, 0xbc, 0xa4, 0x69, 0x58, 0xbe, 0x17, 0x48, 0x4b, 0xbe,
  0xad, 0x9f, 0x81, 0xbe, 0x74, 0xe3, 0x7e, 0xbe, 0x66, 0xf4, 0x90, 0x3d,
  0x39, 0x1d, 0x8c, 0xbd, 0x42, 0x52, 0x78, 0xbe, 0x47, 0x39, 0x18, 0xbe,
  0xb7, 0x06, 0xee, 0x3d, 0xa1, 0xbc, 0x8c, 0xbd, 0xc7, 0xcf, 0x10, 0x3e,
  0x64, 0xeb, 0xe9, 0xbd, 0x62, 0x54, 0x18, 0x3d, 0xd6, 0x71, 0xb9, 0x3c,
  0x2d, 0x4f, 0x7b, 0xbe, 0x29, 0xae, 0x28, 0xbe, 0x4f, 0xd0, 0x1a, 0xbe,
  0xc2, 0x2e, 0x25, 0x3d, 0x73, 0x49, 0xce, 0x3d, 0xd9, 0x67, 0xc9, 0x3d,
  0x64, 0xb9, 0x62, 0xbe, 0x5a, 0xe0, 0x7d, 0xbe, 0x10, 0x87, 0x52, 0x3d,
  0xe1, 0xf9, 0x77, 0xbd, 0x05, 0xe0, 0xa2, 0xbd, 0x50, 0xcd, 0x2d, 0xbe,
  0x8e, 0xca, 0x06, 0xbe, 0xab, 0x58, 0x7c, 0xbe, 0x59, 0xf2, 0x84, 0xbd,
  0xdf, 0x16, 0x61, 0x3c, 0x43, 0x64, 0x9b, 0xbb, 0xb8, 0x13, 0x96, 0xbd,
  0xee, 0x05, 0x9b, 0xbd, 0x60, 0xc4, 0x04, 0xbd, 0x53, 0x49, 0x21, 0x3e,
  0x34, 0xbb, 0x17, 0x3d, 0x04, 0x80, 0x23, 0xbe, 0x8b, 0xf6, 0x58, 0xbe,
  0xdd, 0x10, 0x65, 0xbc, 0xcb, 0x99, 0x3c, 0xbe, 0x4b, 0x54, 0xe1, 0xbd,
  0x6a, 0x60, 0x72, 0xbe, 0xe7, 0x74, 0xa7, 0x3b, 0x9e, 0xe6, 0x16, 0xbd,
  0x79, 0x76, 0x2a, 0x3e, 0x55, 0xe0, 0x17, 0x3e, 0xd3, 0xc2, 0x8a, 0xbe,
  0x2b, 0x68, 0xb2, 0xbd, 0x90, 0x45, 0x08, 0xbe, 0x64, 0xcc, 0x08, 0x3e,
  0xbf, 0xbf, 0xc3, 0xbd, 0xfd, 0x0f, 0x39, 0xbd, 0x3f, 0x4b, 0x55, 0xbe,
  0xc5, 0x5b, 0x21, 0xbd, 0x51, 0x7a, 0x78, 0x3d, 0xb7, 0xe2, 0xc1, 0x3d,
  0xee, 0xa4, 0xa2, 0xbd, 0xf3, 0x32, 0xa6, 0x3d, 0x96, 0xfc, 0x15, 0x3e,
  0x91, 0x54, 0xea, 0xbc, 0x9f, 0x7f, 0x62, 0xbc, 0xa0, 0x55, 0x92, 0x3e,
  0x80, 0xc6, 0x1b, 0xbe, 0x2b, 0xec, 0xbf, 0x3d, 0x89, 0x6c, 0xa5, 0xbd,
  0x23, 0xcf, 0x7a, 0x3c, 0x91, 0x04, 0x6d, 0xbd, 0xd4, 0x64, 0x69, 0xbe,
  0xa9, 0x3a, 0x9c, 0xbc, 0xe3, 0x44, 0xe3, 0xbe, 0x99, 0x25, 0xd2, 0xbd,
  0xea, 0xa2, 0x42, 0xbd, 0x18, 0x22, 0x1a, 0x3e, 0x49, 0x7a, 0xb0, 0x3d,
  0xf6, 0xf0, 0xf3, 0x3d, 0x07, 0x4a, 0xab, 0xbd, 0xeb, 0x38, 0x4f, 0xbe,
  0x46, 0x70, 0xb2, 0x3d, 0xeb, 0x3b, 0x68, 0xbe, 0xc4, 0x41, 0xd4, 0xbd,
  0xf2, 0xcf, 0xc3, 0xbd, 0xdf, 0x9f, 0xac, 0x3d, 0x5e, 0xd6, 0xaa, 0xbd,
  0xd5, 0x03, 0x78, 0x3d, 0x4d, 0x67, 0x54, 0xbe, 0x60, 0x34, 0xa0, 0xbe,
  0x3b, 0x23, 0xef, 0xbc, 0x89, 0x7d, 0xc1, 0xbd, 0x0a, 0xd2, 0x09, 0xbe,
  0x05, 0xf6, 0x37, 0xbe, 0x35, 0x62, 0xad, 0x3d, 0x8a, 0x62, 0x8c, 0xbb,
  0xe8, 0x5c, 0xee, 0x3c, 0x44, 0x41, 0xa4, 0xbc, 0xde, 0x25, 0x4d, 0xbd,
  0x0d, 0x27, 0x7d, 0xbe, 0x10, 0x93, 0x82, 0xbe, 0x75, 0x82, 0x5c, 0x3d,
  0xbf, 0x0b, 0x16, 0xbe, 0x45, 0x3e, 0x3a, 0xbe, 0x3d, 0xb0, 0x21, 0x3d,
  0xca, 0x40, 0x2b, 0xbd, 0x97, 0x0d, 0xa2, 0xbe, 0x2b, 0x9f, 0x74, 0x3d,
  0x95, 0x7b, 0xfa, 0xbc, 0x3e, 0x0e, 0x48, 0x3b, 0xff, 0x4b, 0x48, 0x3e,
  0x66, 0x6b, 0x27, 0xbe, 0x4c, 0xd6, 0xc3, 0xbd, 0xe9, 0x03, 0x46, 0x3e,
  0x3d, 0x1c, 0xe0, 0x3d, 0x82, 0xd3, 0xde, 0x3d, 0x7e, 0x86, 0xb5, 0x3e,
  0xd0, 0x5a, 0xad, 0xbc, 0x18, 0xa5, 0xce, 0x3d, 0x54, 0x78, 0x0b, 0xbe,
  0x71, 0xe0, 0x5e, 0x3e, 0xcd, 0xbd, 0x8c, 0x3d, 0x17, 0x2c, 0x94, 0xbe,
  0x5e, 0xa3, 0x00, 0x3c, 0x26, 0x74, 0x66, 0xbe, 0x2a, 0x3d, 0x13, 0xbb,
  0x32, 0x36, 0xbf, 0x3e, 0xd1, 0xf1, 0x61, 0x3d, 0xff, 0x6d, 0xa6, 0xbd,
  0x59, 0x93, 0x80, 0x3e, 0xa1, 0x5b, 0x83, 0xbd, 0x5d, 0x78, 0x55, 0xbd,
  0xc0, 0xbd, 0xee, 0x3e, 0xc6, 0x2e, 0x84, 0xbe, 0x1f, 0x3c, 0xe8, 0x3d,
  0x66, 0x46, 0x9d, 0x3c, 0xe8, 0x16, 0x27, 0x3e, 0x20, 0x64, 0x32, 0x3d,
  0x85, 0x3f, 0x5a, 0xbd, 0x3f, 0x42, 0x33, 0xbd, 0xd2, 0xef, 0x5a, 0xbe,
  0x91, 0xfc, 0x8e, 0xbe, 0x66, 0x6e, 0xa9, 0x3d, 0x9c, 0x3a, 0xc5, 0x3c,
  0x32, 0x3a, 0xcf, 0xbe, 0x7e, 0xeb, 0x78, 0x3e, 0x4e, 0x00, 0x83, 0xbd,
  0x6b, 0x8e, 0x10, 0xbe, 0x06, 0xa3, 0x72, 0xbd, 0xdf, 0x8e, 0xe0, 0xbd,
  0x44, 0x3c, 0x12, 0xbd, 0x1f, 0x90, 0x7d, 0xbd, 0x54, 0xcb, 0x59, 0x3e,
  0x32, 0x10, 0xb7, 0x3c, 0x7b, 0x26, 0xba, 0xbe, 0x0b, 0xe1, 0x2b, 0xbc,
  0x98, 0x4a, 0x31, 0xbe, 0xd4, 0x26, 0xf3, 0xbd, 0x9c, 0x77, 0x03, 0x3c,
  0x36, 0x70, 0x8e, 0xbd, 0x0d, 0x71, 0x08, 0xbe, 0x03, 0x5b, 0xb4, 0x3d,
  0x01, 0x12, 0xec, 0xbd, 0x63, 0xd6, 0x3f, 0xbe, 0xbc, 0xa3, 0xae, 0xbe,
  0xde, 0x67, 0x31, 0xbe, 0x00, 0x72, 0x2f, 0xbd, 0x4a, 0x77, 0xd5, 0xbe,
  0x9f, 0x15, 0xb8, 0x3d, 0x91, 0x2a, 0x0b, 0x3d, 0xba, 0x42, 0x10, 0xbe,
  0x08, 0xe2, 0xe0, 0xb9, 0x7e, 0x23, 0x85, 0x3d, 0xf5, 0xe8, 0xab, 0xbd,
  0x47, 0x86, 0xf5, 0x3c, 0x0c, 0x4b, 0x70, 0xbd, 0x68, 0xff, 0x96, 0xbd,
  0x4f, 0xe3, 0xfa, 0xba, 0x15, 0x95, 0xec, 0x3c, 0xfe, 0x6c, 0xdc, 0x3d,
  0x1b, 0x7c, 0xd5, 0xbd, 0x9e, 0x41, 0x91, 0x3e, 0x55, 0x4b, 0x7a, 0xbe,
  0xbd, 0x1d, 0x33, 0xbe, 0xc5, 0xff, 0x46, 0x3e, 0x05, 0xa7, 0x65, 0x3d,
  0xdf, 0xa0, 0xf0, 0xbe, 0xd4, 0x3c, 0xd2, 0xbd, 0x25, 0xc7, 0x9c, 0xbd,
  0x7e, 0x96, 0xad, 0x3d, 0xfb, 0xfa, 0xcd, 0x3d, 0x1f, 0x2b, 0x27, 0xbe,
  0x24, 0xcb, 0x0a, 0xbe, 0x13, 0x8e, 0x5d, 0xbd, 0x71, 0xb4, 0x93, 0x3c,
  0x3e, 0x24, 0x20, 0x3e, 0x3a, 0xf9, 0x97, 0x3e, 0xcd, 0x14, 0xad, 0x3d,
  0x26, 0xc8, 0x88, 0x3c, 0x86, 0xc5, 0x17, 0xbe, 0x62, 0x29, 0x94, 0x3e,
  0x86, 0x5a, 0x02, 0x3c, 0xab, 0xe9, 0x00, 0xbe, 0xad, 0x32, 0xc7, 0xbc,
  0x77, 0x7e, 0x06, 0xbe, 0x71, 0x3e, 0x9c, 0xbd, 0x49, 0x15, 0xad, 0x3e,
  0xc9, 0x55, 0x02, 0xbe, 0xb9, 0x2d, 0x65, 0x3c, 0xda, 0x1f, 0xa3, 0x3c,
  0x6d, 0x2b, 0x12, 0x3d, 0x4e, 0x33, 0xcd, 0x3d, 0x7e, 0xc7, 0x9f, 0x3d,
  0xb0, 0x4a, 0xf1, 0x3c, 0x55, 0xd0, 0xf9, 0x3c, 0x5e, 0x08, 0x75, 0x3c,
  0x90, 0x71, 0xc5, 0x3d, 0xa3, 0x2e, 0x1e, 0xbc, 0x23, 0xb1, 0x2d, 0xbe,
  0x47, 0x17, 0x6a, 0xbe, 0x20, 0xdc, 0xf2, 0x3a, 0xa9, 0x74, 0x1e, 0xbe,
  0x0f, 0xf8, 0x0a, 0x3e, 0x48, 0x05, 0x6b, 0xbe, 0x28, 0x06, 0x12, 0x3e,
  0xa4, 0xfc, 0xa4, 0xbd, 0x84, 0xbb, 0xbf, 0xbd, 0x1f, 0xe4, 0x99, 0xbd,
  0x1d, 0x90, 0xef, 0x3d, 0x49, 0x39, 0x26, 0xbd, 0x2c, 0x66, 0xc0, 0x3d,
  0x79, 0x8b, 0x6e, 0x3c, 0x66, 0x4d, 0x79, 0xbd, 0xab, 0xe0, 0x51, 0xbe,
  0xaa, 0xdf, 0x3c, 0xbe, 0x96, 0xed, 0x2c, 0xbe, 0x4c, 0x24, 0xbc, 0x3d,
  0x90, 0x99, 0x48, 0xbe, 0xdd, 0xe5, 0x48, 0xbe, 0x6e, 0xc7, 0x79, 0xbd,
  0x52, 0x72, 0x65, 0xbd, 0x54, 0x40, 0xcd, 0xbd, 0x06, 0x4c, 0x54, 0xbe,
  0x47, 0xe7, 0xf1, 0x3c, 0x06, 0xa5, 0xf0, 0x3d, 0x00, 0x9f, 0x28, 0x3e,
  0xe4, 0xba, 0xa5, 0x3d, 0x0c, 0x90, 0x8a, 0x3d, 0xa7, 0x91, 0x0f, 0xba,
  0x7d, 0xcf, 0xbc, 0xbd, 0xf2, 0xe6, 0xbf, 0xbd, 0x87, 0xe8, 0x2e, 0xbe,
  0x85, 0x8c, 0x41, 0xbe, 0x74, 0xb7, 0x2f, 0xbe, 0xb5, 0x32, 0x81, 0x3c,
  0xbe, 0x4f, 0x63, 0xbd, 0x25, 0x62, 0x14, 0xbe, 0x7c, 0xbb, 0xcf, 0x3d,
  0x48, 0xb5, 0x36, 0xbe, 0xdd, 0xa3, 0x5f, 0xbe, 0xde, 0x7e, 0x01, 0x3e,
  0xc0, 0xef, 0x9d, 0xbc, 0x8f, 0x03, 0xa1, 0x3d, 0x49, 0x55, 0x9c, 0x3c,
  0x63, 0xff, 0xf6, 0x3d, 0x24, 0x8c, 0x80, 0xbe, 0x46, 0xd3, 0x65, 0xbd,
  0x6c, 0x98, 0x97, 0xbe, 0x27, 0xbd, 0x34, 0xbe, 0x2d, 0xf6, 0x10, 0x3e,
  0x7d, 0xce, 0x0e, 0x3e, 0x42, 0xe9, 0xa1, 0xbd, 0x4a, 0x83, 0xbc, 0x3d,
  0x47, 0x4e, 0x6b, 0xbd, 0x99, 0xcf, 0x2b, 0x3a, 0xf6, 0x9f, 0x0c, 0x3e,
  0x74, 0x1d, 0x3a, 0xbe, 0x1a, 0x3b, 0xcd, 0x3d, 0xc3, 0x81, 0x49, 0xbe,
  0xea, 0x6e, 0x9c, 0xbd, 0x74, 0x0a, 0x18, 0xbe, 0x71, 0x19, 0x4b, 0xbe,
  0xbe, 0xab, 0x35, 0x3d, 0x69, 0x0a, 0x1a, 0xbd, 0x81, 0xf9, 0xa4, 0x3d,
  0x6c, 0x12, 0x42, 0xbe, 0xba, 0xb5, 0x1f, 0x3c, 0x29, 0xea, 0x04, 0xbe,
  0xd9, 0x50, 0x5a, 0xbe, 0x95, 0x47, 0xde, 0x3d, 0x19, 0xfd, 0xcc, 0x3c,
  0xd4, 0xec, 0x30, 0xbd, 0xd0, 0x69, 0x03, 0xbe, 0x81, 0x5f, 0x40, 0x3d,
  0xc3, 0x1e, 0xa5, 0xbd, 0xd8, 0x3a, 0x1f, 0xbe, 0x69, 0x85, 0x80, 0x3d,
  0x66, 0x55, 0x25, 0xbe, 0xc1, 0xfc, 0xd6, 0xbc, 0x14, 0x78, 0x73, 0x3d,
  0xf6, 0xa1, 0x6d, 0xbe, 0xac, 0x1d, 0x88, 0x3a, 0xb2, 0xbc, 0x08, 0xbe,
  0xbd, 0xdf, 0x4e, 0xbd, 0xdb, 0x59, 0x15, 0xbe, 0xf1, 0x78, 0x14, 0x3e,
  0x9a, 0x62, 0x5c, 0xbd, 0x1a, 0xed, 0xe6, 0xbd, 0x3d, 0xd8, 0xec, 0xbd,
  0x88, 0x88, 0x8f, 0xbd, 0xcf, 0xb6, 0xd5, 0xbc, 0xc6, 0xb5, 0x64, 0x3d,
  0xf9, 0xe0, 0xc5, 0x3d, 0xf1, 0xe7, 0x05, 0x3d, 0x05, 0xc5, 0x84, 0xbd,
  0x77, 0x99, 0x34, 0xbe, 0x82, 0x0d, 0x75, 0xbd, 0x3b, 0x50, 0x3c, 0xbe,
  0x6e, 0xbd, 0x8b, 0xbd, 0xbd, 0xfe, 0x85, 0xbe, 0x0f, 0x9d, 0xdb, 0xbd,
  0xbb, 0x04, 0xb3, 0xbd, 0xc1, 0x98, 0x22, 0xbe, 0xf0, 0x2f, 0x51, 0xbc,
  0x78, 0xfd, 0x69, 0xbe, 0x1e, 0x5c, 0xb8, 0xbd, 0xdb, 0xf4, 0xa6, 0x3d,
  0x29, 0x5c, 0x33, 0xbe, 0xec, 0x2c, 0x31, 0xbe, 0xad, 0x22, 0x5f, 0x3d,
  0xb7, 0xad, 0x3b, 0x3d, 0xc1, 0xe2, 0x3e, 0xbe, 0xd6, 0xa4, 0x80, 0xbd,
  0x50, 0x69, 0x06, 0xbe, 0x99, 0xba, 0x9e, 0x3d, 0xb0, 0xb8, 0x88, 0xbd,
  0xb6, 0xc7, 0x3d, 0xbe, 0x94, 0x92, 0x7a, 0x3c, 0xab, 0x9a, 0x50, 0x3d,
  0x09, 0x12, 0x95, 0xbe, 0x85, 0x1e, 0x40, 0xbb, 0x90, 0x0c, 0x55, 0xbd,
  0x5c, 0xf5, 0x90, 0x3d, 0x94, 0xfa, 0x32, 0xbc, 0x7b, 0xb9, 0xd2, 0xbc,
  0xdb, 0x15, 0x3e, 0xbe, 0xb2, 0x86, 0x83, 0xbe, 0x27, 0x4a, 0x1b, 0x3e,
  0x12, 0x7a, 0x2b, 0x3e, 0xc8, 0x05, 0xcd, 0xbd, 0x60, 0xb6, 0x22, 0x3e,
  0x48, 0xe9, 0x3c, 0xbe, 0x21, 0x32, 0xb9, 0x3d, 0x29, 0xe0, 0x4c, 0x3e,
  0x29, 0x4e, 0x45, 0xbe, 0xd1, 0x1e, 0x08, 0x3e, 0x47, 0x53, 0xeb, 0xbd,
  0xf7, 0xd6, 0x7a, 0x3e, 0xe6, 0x9e, 0xad, 0xbd, 0x2e, 0x36, 0x9a, 0x3b,
  0xca, 0x89, 0xb5, 0xbd, 0x96, 0x8a, 0x67, 0xbe, 0xc5, 0x4e, 0xee, 0xbd,
  0x10, 0x7f, 0x90, 0xbd, 0x17, 0x7b, 0x27, 0xbe, 0xc2, 0x10, 0xd6, 0xbd,
  0xb4, 0x91, 0xd8, 0x3e, 0xfb, 0x4c, 0x59, 0xbc, 0x79, 0xd0, 0x92, 0x3d,
  0xfd, 0xdb, 0x80, 0x3b, 0x3e, 0x5d, 0x1a, 0x3e, 0x22, 0x7c, 0xa5, 0xbd,
  0xe4, 0xc5, 0xa3, 0x3d, 0x35, 0x37, 0x44, 0xbe, 0x7f, 0xf1, 0xe0, 0x3d,
  0x2d, 0xd0, 0x19, 0x3e, 0xd9, 0x8a, 0x6c, 0x3c, 0x8a, 0x4a, 0xa8, 0xbe,
  0xe4, 0x33, 0xab, 0xbd, 0xe1, 0xb1, 0x3f, 0xbe, 0x02, 0x4e, 0x0d, 0xbd,
  0xdb, 0xec, 0x29, 0xbe, 0x72, 0x93, 0xf7, 0x3e, 0xe2, 0x45, 0xdb, 0x3d,
  0x79, 0xbb, 0xfa, 0x3c, 0x27, 0x57, 0xd6, 0xbd, 0x2b, 0xc0, 0x8f, 0x3e,
  0x39, 0x03, 0x27, 0x3e, 0x47, 0x29, 0xea, 0xbd, 0xd7, 0xf7, 0xe6, 0x3b,
  0x88, 0xdc, 0x7b, 0x3e, 0x01, 0x79, 0x1e, 0x3d, 0x64, 0x5f, 0xe9, 0xbd,
  0x40, 0xa9, 0x18, 0xbe, 0x3a, 0x16, 0xb6, 0xbd, 0xa4, 0xcc, 0xbe, 0xbe,
  0x0a, 0x06, 0xaa, 0xbd, 0x9e, 0x84, 0x8e, 0xbd, 0xca, 0xa2, 0x7d, 0x3d,
  0x56, 0x98, 0x19, 0x3c, 0x6b, 0x70, 0xd9, 0xbd, 0x97, 0xa3, 0x51, 0xbd,
  0xec, 0x5a, 0xa2, 0x3e, 0x97, 0xc6, 0x09, 0xbe, 0xb5, 0x1a, 0x65, 0x3d,
  0x2b, 0xa2, 0xf7, 0xbc, 0x84, 0x9d, 0x1c, 0x3e, 0xba, 0x35, 0xc5, 0xbd,
  0x64, 0x50, 0xcf, 0x3d, 0xed, 0xc7, 0x5a, 0xbe, 0x40, 0xdb, 0xd9, 0x3d,
  0x35, 0xdf, 0x4c, 0xbd, 0xec, 0xd5, 0x4b, 0xbe, 0xfe, 0xe8, 0x6b, 0xbd,
  0x28, 0x4c, 0x4a, 0x3e, 0x21, 0xda, 0x40, 0xbe, 0xce, 0x2e, 0x6d, 0xbd,
  0x65, 0x1e, 0xac, 0x3d, 0x60, 0xe6, 0xdb, 0x3d, 0x58, 0xb6, 0xb0, 0xbd,
  0x72, 0xfc, 0x67, 0xbe, 0xb6, 0x36, 0x3b, 0xbd, 0xdc, 0xd5, 0xf0, 0xbd,
  0x8a, 0xea, 0x56, 0xbe, 0xbd, 0x74, 0x61, 0x3c, 0x07, 0xe2, 0x57, 0xbd,
  0xb6, 0x1e, 0xe3, 0xbd, 0x94, 0xe1, 0xa0, 0xbe, 0x69, 0xf0, 0x81, 0xbe,
  0x22, 0x58, 0xd1, 0x3c, 0xef, 0x1d, 0x90, 0xbd, 0xe0, 0x84, 0x4f, 0xbe,
  0xb0, 0x43, 0xc5, 0xbd, 0x34, 0xdf, 0x0f, 0x3e, 0xd4, 0xdf, 0x23, 0x3e,
  0xf9, 0xb4, 0x60, 0xbe, 0xd3, 0x40, 0xad, 0xbd, 0x4a, 0x5d, 0x34, 0xbd,
  0x06, 0x59, 0x96, 0xbd, 0xe7, 0x2b, 0xdc, 0xbd, 0xe4, 0x32, 0x3a, 0xbe,
  0xef, 0x8e, 0x35, 0xbe, 0xb4, 0x99, 0x33, 0xbe, 0x56, 0x85, 0xe3, 0x3d,
  0xdf, 0xde, 0x58, 0xbd, 0x12, 0xe6, 0x93, 0x3d, 0x4a, 0x2e, 0xab, 0x3e,
  0x51, 0xa2, 0x81, 0xbe, 0x06, 0x27, 0x32, 0xbe, 0xe1, 0x21, 0x74, 0xbe,
  0x13, 0xca, 0x3c, 0x3e, 0xfa, 0x5c, 0x54, 0x3e, 0x93, 0x64, 0xa9, 0x3e,
  0x29, 0xd7, 0xa4, 0x3c, 0x3f, 0x69, 0x4f, 0x3e, 0x45, 0x53, 0xbe, 0xbd,
  0x0e, 0xc4, 0x5a, 0x3e, 0x50, 0xca, 0x4b, 0x3e, 0x06, 0x50, 0x29, 0xbe,
  0x23, 0x77, 0xbd, 0xbd, 0xf8, 0x45, 0x28, 0x3e, 0x41, 0xc2, 0x57, 0x3d,
  0xbc, 0x9b, 0xcb, 0x3e, 0x92, 0x25, 0xbf, 0x3d, 0x79, 0x34, 0xd3, 0xbc,
  0x78, 0x1f, 0xd5, 0x3d, 0xd5, 0x1e, 0x56, 0xbe, 0x7a, 0x3a, 0x6f, 0x3d,
  0x57, 0xaf, 0xb0, 0x3e, 0xd8, 0xc4, 0x7b, 0x3e, 0x34, 0x68, 0xcc, 0x3d,
  0xb3, 0xf5, 0xe2, 0x3d, 0xec, 0x2e, 0x36, 0x3e, 0x85, 0xdb, 0xa5, 0xbd,
  0x1b, 0xef, 0x99, 0x3e, 0x19, 0xf5, 0xf1, 0x3c, 0x09, 0x58, 0x3c, 0xbd,
  0x41, 0xca, 0xf8, 0x3c, 0xcc, 0x8c, 0x6a, 0x3d, 0x31, 0x72, 0x21, 0xbc,
  0x2c, 0x85, 0xa7, 0xbe, 0xc1, 0xbb, 0x3a, 0x3d, 0xbc, 0xda, 0x1d, 0xbe,
  0x09, 0x3b, 0x1e, 0xbe, 0x2b, 0x2c, 0x50, 0xbe, 0x3d, 0xe2, 0x36, 0xbe,
  0x5d, 0x7a, 0x05, 0xbf, 0xe0, 0x67, 0xec, 0xbe, 0x76, 0xcc, 0xcf, 0xbd,
  0x62, 0xee, 0xa2, 0xbd, 0x61, 0x94, 0xd5, 0xbe, 0x65, 0x02, 0x4d, 0xbd,
  0xfa, 0xf0, 0xa7, 0xbe, 0x0b, 0x0d, 0xa7, 0xbe, 0x7a, 0xf7, 0x8e, 0xbd,
  0xfe, 0x6f, 0x9b, 0x3d, 0x92, 0xbb, 0x6d, 0xbe, 0x71, 0x13, 0xc5, 0x3d,
  0xa3, 0xf7, 0x45, 0xbe, 0x40, 0x65, 0x46, 0xbe, 0x52, 0x9c, 0xf4, 0xbe,
  0x51, 0xf8, 0x8e, 0xbc, 0xad, 0x87, 0x18, 0xbe, 0xef, 0x11, 0x11, 0xbf,
  0xc7, 0xd5, 0x43, 0xbe, 0xb1, 0xbf, 0x90, 0xbd, 0x15, 0xd0, 0x48, 0xbe,
  0x99, 0xbb, 0x95, 0xbc, 0x51, 0x9f, 0xa2, 0xbd, 0xbf, 0xfb, 0xb8, 0xbe,
  0x19, 0x25, 0x79, 0xbe, 0xcb, 0x0a, 0x4f, 0xbd, 0x92, 0xdc, 0x82, 0xbb,
  0x4a, 0xdc, 0x04, 0xbe, 0x71, 0x14, 0xbd, 0xbd, 0x8d, 0x79, 0x6f, 0x3d,
  0xee, 0xeb, 0x2c, 0xbe, 0x36, 0xd6, 0xd6, 0xbd, 0x7f, 0xf0, 0x43, 0x3d,
  0x21, 0x3c, 0xa2, 0xbe, 0xc0, 0xc2, 0x56, 0xbe, 0x71, 0xcd, 0x43, 0xbd,
  0x8a, 0xb8, 0x20, 0xbd, 0x2e, 0xd7, 0x4e, 0xbd, 0x6b, 0x31, 0x23, 0xbd,
  0x98, 0xff, 0xc5, 0xbe, 0x7b, 0x6b, 0xac, 0xbe, 0x50, 0x47, 0xae, 0x3d,
  0xa4, 0xc4, 0x68, 0xbe, 0xfb, 0xd6, 0x44, 0xbe, 0xa0, 0x21, 0x5c, 0xbe,
  0x4a, 0xd5, 0x3a, 0xbe, 0x17, 0xa5, 0x40, 0xbe, 0xe4, 0x9c, 0x02, 0xbd,
  0x06, 0xfe, 0x0c, 0xbe, 0x85, 0xfd, 0x90, 0xbd, 0x18, 0x8d, 0x9d, 0xbd,
  0xd9, 0xf7, 0xad, 0xbd, 0x4a, 0x1d, 0x43, 0xbd, 0x56, 0x3f, 0xde, 0xbd,
  0x36, 0xd1, 0x20, 0xbe, 0x70, 0xe4, 0x81, 0xbe, 0xfc, 0x11, 0x9d, 0xbe,
  0x2a, 0x8d, 0x89, 0xbe, 0x25, 0xd3, 0x8d, 0xbd, 0x09, 0xc5, 0xab, 0x3d,
  0x30, 0x50, 0x82, 0x3a, 0x12, 0xfb, 0xb0, 0xbe, 0xa5, 0x3d, 0x3f, 0x3d,
  0xd5, 0x13, 0x77, 0xbe, 0x5d, 0xc3, 0x63, 0xbe, 0xea, 0x40, 0xe5, 0xbd,
  0xf1, 0x8f, 0x11, 0xbd, 0xdd, 0xe8, 0x8b, 0xbd, 0xcd, 0xa6, 0xe0, 0xbd,
  0x61, 0x8c, 0x9d, 0xbe, 0x02, 0x77, 0x38, 0xbe, 0xb8, 0x5b, 0xd2, 0x3c,
  0xbc, 0x05, 0x1e, 0xbe, 0xd5, 0xca, 0xa8, 0x3d, 0xd7, 0xdc, 0xfb, 0x3d,
  0xe5, 0x92, 0x8a, 0x3e, 0x39, 0x4e, 0xa4, 0x3d, 0x12, 0x17, 0xac, 0xbd,
  0xcf, 0x5d, 0xe2, 0x3d, 0x27, 0x9c, 0xd7, 0xbd, 0x2a, 0xa1, 0x39, 0x3e,
  0x19, 0x23, 0x21, 0xbe, 0xda, 0xef, 0x31, 0xbe, 0x4e, 0xe4, 0xc8, 0xbe,
  0x37, 0x3a, 0x13, 0xbe, 0x19, 0x89, 0x92, 0xbe, 0xd1, 0x6a, 0x62, 0xbd,
  0x07, 0x95, 0x71, 0xbd, 0xac, 0xbd, 0x4d, 0x3d, 0x52, 0xea, 0xa3, 0x3b,
  0x60, 0xd1, 0xba, 0xbd, 0x72, 0xc3, 0x86, 0xbd, 0xe7, 0x29, 0x16, 0x3e,
  0xd4, 0x60, 0xd4, 0xbb, 0x84, 0xc5, 0x09, 0x3d, 0x06, 0x50, 0xc3, 0xbd,
  0x76, 0xf7, 0x49, 0x3e, 0x5b, 0x01, 0x82, 0x3d, 0x7a, 0x8a, 0x84, 0x3c,
  0x0a, 0x66, 0x2b, 0xbe, 0xba, 0x95, 0xcf, 0x3d, 0x73, 0x64, 0x86, 0xbe,
  0x1b, 0x3a, 0xd5, 0x3c, 0x86, 0x7c, 0x94, 0xbc, 0x91, 0x0d, 0x3c, 0x3e,
  0x12, 0x67, 0x1e, 0xbe, 0xbc, 0x5e, 0x1b, 0x3d, 0x4d, 0xdc, 0x83, 0x3e,
  0xbd, 0xa6, 0x43, 0x3e, 0x25, 0xad, 0xa9, 0x3c, 0x3d, 0x3f, 0xfd, 0x3c,
  0x2e, 0xd6, 0xb7, 0xbd, 0x07, 0x4e, 0xb6, 0x3e, 0xa7, 0xe9, 0xff, 0x3d,
  0x9f, 0xfa, 0x2b, 0x3e, 0x7f, 0x97, 0xb9, 0xbe, 0x70, 0x6e, 0x27, 0x3e,
  0xdc, 0x51, 0xec, 0x3d, 0xe4, 0xbb, 0xe4, 0x3d, 0xca, 0x7a, 0x7f, 0xbe,
  0xce, 0xdb, 0xf0, 0x3b, 0x8d, 0x04, 0x2b, 0xbe, 0x83, 0x9f, 0x0a, 0x3c,
  0x9b, 0xae, 0x9f, 0xbd, 0x0d, 0x74, 0x6d, 0x3c, 0x00, 0xaa, 0x41, 0xbe,
  0x1d, 0xb6, 0xb8, 0xbc, 0x2f, 0xcf, 0x2f, 0xbe, 0x7c, 0x42, 0x88, 0xbc,
  0x0d, 0xef, 0x24, 0xbe, 0x74, 0x05, 0x9e, 0xbd, 0xfa, 0xe5, 0x20, 0xbc,
  0x2d, 0x69, 0xb0, 0xbb, 0x8b, 0x1a, 0x0e, 0xbe, 0xf8, 0x5b, 0x9b, 0xbd,
  0xe5, 0x19, 0xe5, 0x3d, 0xe2, 0x8a, 0x8a, 0xbd, 0x8d, 0x03, 0x30, 0xbe,
  0x83, 0xfe, 0x85, 0xbe, 0x34, 0x8e, 0x70, 0xbd, 0xac, 0xa5, 0x86, 0xbd,
  0x49, 0x05, 0x15, 0x3d, 0xe8, 0xd2, 0x89, 0x3a, 0xc2, 0x20, 0xac, 0xbd,
  0x2f, 0x21, 0x07, 0xbc, 0x10, 0xa0, 0x91, 0x3d, 0xf6, 0xbb, 0xe8, 0x3d,
  0xcb, 0x41, 0xef, 0x3c, 0xdc, 0x0c, 0x48, 0xbc, 0xe9, 0xa3, 0x89, 0x3c,
  0x35, 0x83, 0xc8, 0x3d, 0xdf, 0x9a, 0x62, 0xbe, 0x97, 0x59, 0x26, 0xbe,
  0xb5, 0x28, 0x97, 0xbe, 0x91, 0x89, 0x37, 0xbe, 0x9e, 0x09, 0x01, 0x3d,
  0x5d, 0x15, 0xad, 0x3c, 0x9f, 0xd7, 0x1f, 0xbd, 0x7a, 0xa0, 0x08, 0xbe,
  0x13, 0xf4, 0x86, 0xbb, 0xe4, 0x40, 0x89, 0xbd, 0x10, 0x44, 0xfb, 0x3b,
  0xc7, 0x54, 0xd7, 0xbd, 0x0b, 0xad, 0xa1, 0x3d, 0x70, 0x95, 0x92, 0xbd,
  0x71, 0x03, 0x08, 0xbd, 0xfb, 0xee, 0x8d, 0xbd, 0x0a, 0x4b, 0x3f, 0x3d,
  0xe0, 0x21, 0x07, 0xbe, 0x55, 0x05, 0xd2, 0xbd, 0x61, 0x0b, 0xb1, 0x3d,
  0x08, 0xaa, 0x04, 0xbc, 0x5b, 0x23, 0xcc, 0x3d, 0x02, 0xf4, 0xb3, 0xbd,
  0xf4, 0x8b, 0x38, 0x3b, 0xc0, 0x39, 0xe6, 0xbd, 0xc4, 0x90, 0xf0, 0x3d,
  0x5b, 0x5e, 0xa0, 0xbd, 0x85, 0x1b, 0xc1, 0xbd, 0x8f, 0x81, 0x69, 0xbe,
  0x4f, 0xae, 0xd1, 0xbe, 0x43, 0xf5, 0xb3, 0xbe, 0xf6, 0x29, 0x39, 0xbc,
  0xc0, 0x1e, 0xbc, 0x3d, 0x83, 0x0f, 0xaa, 0xbe, 0xe1, 0xf0, 0x0c, 0xbe,
  0x5d, 0x6b, 0x18, 0xbc, 0x83, 0x6e, 0xc8, 0xbd, 0xb3, 0xba, 0x97, 0xbd,
  0xbc, 0xc2, 0x54, 0xbe, 0x15, 0x7b, 0x25, 0xbd, 0x20, 0x18, 0xa7, 0xb9,
  0x34, 0x2f, 0xb1, 0xbe, 0xc9, 0xe2, 0xbe, 0xbd, 0x20, 0x4b, 0x35, 0xbe,
  0xc3, 0xe0, 0x07, 0xbe, 0xaa, 0x05, 0xe6, 0xbd, 0xc8, 0x9a, 0xf3, 0xbe,
  0x85, 0x9b, 0x3d, 0x3b, 0x68, 0x78, 0xc4, 0xbd, 0xd2, 0x38, 0x42, 0xbe,
  0xf2, 0x26, 0xaa, 0x3c, 0x39, 0x46, 0xd2, 0x3b, 0x92, 0xd9, 0x63, 0xbe,
  0x02, 0xd8, 0x36, 0xbd, 0xb3, 0x2f, 0x69, 0xbe, 0x2c, 0x90, 0xda, 0x3d,
  0x88, 0x0a, 0xd8, 0x3d, 0xe3, 0xc3, 0xd5, 0x3d, 0x03, 0xa1, 0xb8, 0xbd,
  0x14, 0x51, 0x04, 0x3d, 0x81, 0xf8, 0xf0, 0xbb, 0x38, 0x01, 0x27, 0x3c,
  0x01, 0x88, 0x2e, 0xbe, 0xbf, 0x1b, 0xdb, 0xbc, 0xf5, 0x96, 0x44, 0x3e,
  0x7d, 0x5c, 0xe1, 0x3d, 0x2f, 0x4b, 0x7c, 0xbe, 0xbd, 0x5e, 0x36, 0xbd,
  0x1e, 0xdd, 0xf3, 0xbd, 0xc3, 0x48, 0x8f, 0x3d, 0xef, 0xdb, 0x10, 0xbe,
  0xf4, 0xf9, 0x0f, 0x3e, 0x7b, 0xc0, 0x80, 0xbe, 0x0a, 0x38, 0xe2, 0x3d,
  0xf4, 0xfa, 0xf6, 0x3d, 0xe2, 0x11, 0x45, 0xbe, 0x3d, 0xde, 0xba, 0xbd,
  0xf5, 0xac, 0xeb, 0xbc, 0xf3, 0x8e, 0xfa, 0xbe, 0xcd, 0xbf, 0x9f, 0xbe,
  0xb7, 0xbc, 0xe9, 0xbd, 0xdd, 0xec, 0x26, 0x3d, 0xdf, 0x79, 0x51, 0xbd,
  0x6d, 0x92, 0x7c, 0xbd, 0x53, 0xd6, 0xa5, 0xbb, 0x28, 0x66, 0xb0, 0x3c,
  0xc1, 0xe9, 0xb7, 0xbd, 0xf1, 0x87, 0xff, 0xbc, 0x41, 0xe3, 0xa6, 0xbe,
  0xc3, 0x0b, 0x77, 0xbd, 0x95, 0x4a, 0x9c, 0xbd, 0xca, 0xe4, 0x61, 0xbe,
  0xdb, 0x14, 0xb1, 0x3b, 0x3b, 0x76, 0x85, 0xbe, 0x15, 0xb2, 0xa5, 0xbe,
  0x37, 0xb8, 0xb6, 0xbc, 0x15, 0xc1, 0x61, 0x3d, 0xea, 0xd4, 0xb1, 0x3d,
  0xeb, 0x8a, 0x37, 0xbe, 0x2b, 0x1d, 0x1b, 0xbd, 0xeb, 0x0f, 0x43, 0xbd,
  0xf9, 0x8b, 0x37, 0xbe, 0xbe, 0x1f, 0x39, 0xbd, 0x81, 0x0a, 0x37, 0x3d,
  0xac, 0x28, 0xa6, 0xbd, 0x7b, 0xd8, 0xf6, 0xbd, 0x48, 0x04, 0xec, 0xbd,
  0x31, 0x83, 0xae, 0xbc, 0x7a, 0x93, 0xd2, 0xbd, 0x58, 0x86, 0xb8, 0xbe,
  0xe5, 0x1b, 0x9c, 0xbe, 0x71, 0x2a, 0x6b, 0xbb, 0x7d, 0x67, 0x2e, 0x3e,
  0x5a, 0x16, 0x85, 0x3e, 0xc0, 0xf3, 0x01, 0xbe, 0x27, 0x92, 0x3e, 0x3d,
  0xcb, 0xec, 0x90, 0xbd, 0x8b, 0x71, 0x70, 0xbc, 0x8c, 0x5e, 0x6b, 0x3e,
  0x06, 0xdd, 0x90, 0x3d, 0xc4, 0x7e, 0x43, 0x3e, 0x81, 0x2f, 0x92, 0x3d,
  0x64, 0x4b, 0x96, 0x3d, 0x78, 0x81, 0xee, 0x3d, 0x39, 0x1c, 0x9a, 0xbd,
  0x18, 0xd5, 0x12, 0xbe, 0x91, 0xa5, 0x0e, 0x3e, 0xf0, 0x20, 0xed, 0xbd,
  0xc8, 0x9e, 0xbf, 0xbc, 0xc1, 0x42, 0xc4, 0x3e, 0x37, 0x13, 0x1f, 0xbe,
  0x79, 0x8c, 0xa4, 0x3d, 0xe8, 0x2a, 0x09, 0x3d, 0x38, 0x2e, 0xb7, 0x3d,
  0x42, 0x01, 0x46, 0x3e, 0x6f, 0xc7, 0xab, 0xbd, 0x44, 0x55, 0x64, 0x3e,
  0x38, 0xc1, 0x26, 0x3e, 0x90, 0xde, 0x02, 0xbe, 0x2c, 0xad, 0xde, 0x3d,
  0x14, 0x4b, 0xec, 0x3d, 0xe8, 0x77, 0x8c, 0xbe, 0xda, 0x47, 0xc5, 0xbd,
  0xca, 0xd8, 0xdc, 0x3c, 0x64, 0xe9, 0xac, 0x3d, 0xce, 0x30, 0x78, 0xbd,
  0x47, 0x4a, 0xdd, 0xbd, 0x28, 0x5c, 0x1b, 0xbd, 0x18, 0x8b, 0xa2, 0x3c,
  0x03, 0x09, 0x48, 0xbe, 0x50, 0xa6, 0xa0, 0xbd, 0x0b, 0x39, 0xc5, 0x3d,
  0x08, 0xb6, 0xbd, 0x3d, 0xe3, 0xea, 0x7c, 0xbe, 0xed, 0x6e, 0x6e, 0xbe,
  0xb1, 0xc6, 0x84, 0xbe, 0x6d, 0x13, 0x80, 0xbe, 0xa3, 0x35, 0x9a, 0xbd,
  0xf9, 0xb4, 0x40, 0x3d, 0x5b, 0xcf, 0xfd, 0x3d, 0xfc, 0x6d, 0x63, 0xbe,
  0xec, 0xc5, 0xed, 0x3d, 0x7b, 0xaa, 0x39, 0xbe, 0x52, 0x78, 0xd3, 0xbc,
  0x3f, 0x5d, 0x0a, 0xbe, 0xae, 0xcb, 0x97, 0x3d, 0x97, 0x61, 0xc0, 0xbb,
  0x38, 0xcf, 0x16, 0xbe, 0xd1, 0xce, 0xd9, 0x3d, 0x98, 0xa8, 0x79, 0xbe,
  0x72, 0x13, 0xeb, 0xbd, 0x61, 0x97, 0xd2, 0xbd, 0x76, 0xcc, 0x19, 0x3d,
  0xfb, 0x2e, 0x83, 0x3c, 0x0e, 0xcb, 0xba, 0xbb, 0xf7, 0xc4, 0x35, 0x3c,
  0xdc, 0xb7, 0xd3, 0xba, 0xda, 0xd6, 0x1b, 0xbc, 0x6b, 0x4a, 0xbd, 0xbd,
  0x6c, 0x9d, 0x22, 0xbd, 0xd9, 0x93, 0x0d, 0x3d, 0x36, 0x78, 0x8f, 0xbe,
  0x16, 0x22, 0x22, 0xbe, 0x96, 0xda, 0xb1, 0xbb, 0x97, 0x77, 0x3a, 0x3e,
  0xc9, 0x5d, 0xde, 0xbd, 0xa2, 0x55, 0x30, 0x3e, 0x05, 0x48, 0x17, 0xbd,
  0xc3, 0x83, 0x4e, 0xbe, 0x0d, 0xee, 0xd2, 0xbd, 0xd3, 0xfb, 0xe7, 0xbd,
  0x4b, 0x50, 0xda, 0x3d, 0x78, 0xd1, 0xb7, 0xbd, 0xd2, 0x65, 0xbf, 0xbd,
  0x9d, 0xd1, 0x0b, 0xbe, 0xbb, 0x85, 0x21, 0x3e, 0x74, 0x12, 0x01, 0xbe,
  0x90, 0x3d, 0x5f, 0xbb, 0xfe, 0xd1, 0x8e, 0xbd, 0xc2, 0x1a, 0x53, 0x3d,
  0xec, 0xbf, 0x83, 0xbd, 0x32, 0xd7, 0x53, 0xbe, 0x95, 0xa6, 0xdd, 0xbd,
  0xb7, 0x65, 0x95, 0xba, 0xad, 0x3b, 0x9c, 0xbd, 0xe9, 0x9c, 0x5b, 0xbe,
  0xaf, 0x8b, 0xfe, 0xbb, 0xd0, 0x95, 0xda, 0x3d, 0x9b, 0x6c, 0x6c, 0xbd,
  0x41, 0xc1, 0x77, 0x3d, 0xfa, 0x80, 0xc6, 0xbb, 0x85, 0x2b, 0xc3, 0x3d,
  0xcc, 0x3d, 0x3b, 0xbd, 0xc8, 0x40, 0x1e, 0xbe, 0x4a, 0xbc, 0x07, 0xbd,
  0x91, 0x1b, 0x53, 0xbe, 0xe8, 0x4f, 0x7a, 0x3c, 0xab, 0x2e, 0x49, 0xbd,
  0x4c, 0xbe, 0x2a, 0x3d, 0x07, 0xb6, 0xe2, 0xbd, 0x85, 0x86, 0x43, 0xbe,
  0x7f, 0x02, 0x1e, 0xbc, 0xf1, 0xb2, 0x75, 0xbe, 0x32, 0x67, 0xfc, 0xbd,
  0xa9, 0xcb, 0x62, 0x3d, 0x36, 0xad, 0x79, 0xbd, 0x5a, 0x75, 0x7f, 0xbe,
  0x54, 0xf5, 0x0d, 0xbe, 0x47, 0xbd, 0x12, 0xbe, 0xbd, 0xe8, 0x8e, 0xbd,
  0xb3, 0xc8, 0x04, 0xbe, 0x2e, 0xd7, 0x0d, 0x3e, 0xb1, 0x36, 0x2e, 0xbe,
  0x4f, 0x57, 0xe4, 0x3c, 0xa7, 0x2a, 0x7f, 0xbd, 0x1f, 0x54, 0x1a, 0xbe,
  0xfc, 0xf4, 0xbc, 0x3c, 0xa2, 0xc9, 0xa4, 0x3d, 0x0b, 0xf7, 0x81, 0xbe,
  0x6c, 0xae, 0xcd, 0xbd, 0xa4, 0x20, 0x6f, 0xbe, 0x95, 0xcf, 0x2b, 0x3e,
  0xdd, 0x09, 0x19, 0xbe, 0x19, 0x81, 0x21, 0xbe, 0xcd, 0x65, 0xa3, 0xbd,
  0x12, 0x33, 0x9f, 0xbe, 0xef, 0x30, 0xdb, 0xbc, 0xd0, 0x91, 0x19, 0xbd,
  0x46, 0xf3, 0x82, 0xbd, 0xa9, 0x0f, 0x03, 0xbe, 0xde, 0x92, 0x8a, 0xbd,
  0x47, 0xaf, 0x55, 0xbc, 0x01, 0xe4, 0x98, 0xbe, 0xd9, 0xc2, 0xb5, 0xbd,
  0x2d, 0x0b, 0xb3, 0xbd, 0x41, 0x11, 0x68, 0xbe, 0x9e, 0xe5, 0x3c, 0xbe,
  0xf0, 0x5e, 0x27, 0x3d, 0x08, 0xe1, 0x52, 0xbe, 0xcc, 0xc0, 0x85, 0xbe,
  0x8d, 0xc2, 0x22, 0x3f, 0x08, 0x17, 0x0f, 0x3e, 0xf4, 0xdd, 0xba, 0x3b,
  0x6e, 0xaa, 0x3d, 0x3c, 0xc9, 0x2c, 0x54, 0xbe, 0xb0, 0x4d, 0xf7, 0x3d,
  0x41, 0x86, 0xb2, 0xbe, 0x4b, 0xbc, 0x33, 0xbe, 0xfe, 0x76, 0x95, 0xbd,
  0x61, 0xb4, 0x90, 0xbe, 0x3b, 0xc4, 0xff, 0xbd, 0xda, 0xbe, 0x03, 0x3e,
  0x7a, 0xfb, 0x42, 0xbd, 0x40, 0xd1, 0x37, 0xbe, 0x8c, 0x16, 0x61, 0x3d,
  0x83, 0xd3, 0x04, 0xbe, 0xb3, 0xbb, 0x80, 0x3e, 0x5a, 0x88, 0x29, 0x3e,
  0x77, 0x21, 0x2f, 0x3e, 0x26, 0x90, 0x53, 0x3d, 0xf2, 0x7a, 0x20, 0x3e,
  0x80, 0xf8, 0x3c, 0x3e, 0x74, 0x08, 0xa7, 0xbd, 0x08, 0x08, 0x13, 0xbe,
  0x2b, 0x03, 0xce, 0xbe, 0x03, 0x6f, 0x9c, 0xbd, 0x52, 0x85, 0x66, 0xbd,
  0x79, 0x0f, 0xfd, 0xbd, 0x9b, 0x79, 0x92, 0xbe, 0x69, 0x25, 0x72, 0x3e,
  0xfe, 0xae, 0xae, 0xbe, 0x4e, 0x71, 0x49, 0xbd, 0x1f, 0x62, 0x8f, 0x3e,
  0x84, 0x2e, 0x82, 0x3d, 0xdd, 0xa7, 0x37, 0x3e, 0xea, 0xb9, 0xbb, 0x3d,
  0x55, 0x4e, 0x65, 0xbe, 0x4a, 0xd8, 0x77, 0xbd, 0xc1, 0xf1, 0x9c, 0x3d,
  0xd8, 0x5f, 0x14, 0xbe, 0x73, 0x5b, 0xf3, 0xbc, 0xae, 0xe4, 0x53, 0xbe,
  0x03, 0x80, 0x65, 0x3d, 0x4f, 0xa5, 0xa2, 0xbd, 0x3f, 0x4d, 0x81, 0xbd,
  0x9f, 0x8b, 0xbc, 0x3d, 0x61, 0x70, 0x4e, 0xbd, 0x48, 0xbd, 0xee, 0x3d,
  0x1c, 0x1f, 0x62, 0x3e, 0xa0, 0x10, 0x22, 0x3e, 0x41, 0x1f, 0xfd, 0x3d,
  0x2c, 0xe9, 0x9c, 0xbb, 0x85, 0xe3, 0x03, 0x3e, 0x4f, 0x74, 0xb3, 0x3d,
  0xb2, 0x64, 0x1f, 0x3e, 0x8e, 0xb5, 0x03, 0x3e, 0xff, 0xa1, 0xa1, 0xbe,
  0x12, 0x4c, 0x2d, 0xbe, 0x24, 0x56, 0xd2, 0xbd, 0xcc, 0x29, 0x68, 0xbd,
  0xe3, 0x8e, 0x1f, 0x3b, 0x6a, 0x02, 0x05, 0xbd, 0x91, 0x0a, 0x12, 0xbe,
  0xca, 0x8f, 0x21, 0x3e, 0x86, 0x35, 0x7d, 0x3e, 0x5e, 0xe4, 0x2a, 0xbe,
  0x0a, 0x11, 0xa5, 0xbc, 0xd6, 0xd3, 0xa1, 0x3d, 0x7d, 0xe2, 0x05, 0x3e,
  0x83, 0x0c, 0x2a, 0xbe, 0xf7, 0x08, 0x03, 0xbc, 0x03, 0xe1, 0x0c, 0xbc,
  0x36, 0xb0, 0x2b, 0xbe, 0x1d, 0x93, 0x1d, 0x3e, 0x3f, 0x45, 0x0d, 0xbd,
  0xb9, 0x7a, 0x87, 0xbe, 0x84, 0x87, 0x3d, 0xbe, 0x56, 0x0d, 0xcd, 0x3d,
  0xb5, 0x52, 0x33, 0xbe, 0x4f, 0x21, 0xfa, 0x3d, 0xd7, 0x0d, 0x67, 0x3e,
  0xe4, 0x08, 0x1e, 0xbe, 0x25, 0xe0, 0x6d, 0x3e, 0x56, 0x29, 0xbf, 0xbc,
  0xf8, 0x73, 0x38, 0x3b, 0x6b, 0x9b, 0x7d, 0xbe, 0x10, 0x45, 0x41, 0xbe,
  0xba, 0xf5, 0x41, 0xbd, 0xcc, 0xe9, 0x4e, 0xbe, 0x42, 0xca, 0x98, 0xbe,
  0xfd, 0x69, 0x4e, 0xbe, 0xb8, 0xfc, 0x86, 0x3c, 0xa7, 0xf7, 0xe5, 0xbd,
  0xd5, 0x87, 0xcf, 0xbb, 0x6e, 0xc1, 0x4d, 0xbe, 0xb5, 0x73, 0xaa, 0xbb,
  0x49, 0xa8, 0x6d, 0xbe, 0x91, 0xb7, 0x4b, 0xbe, 0xd4, 0x48, 0xa1, 0x3d,
  0x6e, 0xb4, 0x6c, 0xbd, 0x2e, 0x1b, 0xf8, 0xbd, 0xd8, 0x5e, 0x35, 0xbe,
  0xd5, 0x7e, 0x3f, 0xbe, 0x3c, 0x9d, 0xca, 0x3d, 0xca, 0x63, 0x45, 0xbe,
  0x71, 0x73, 0x41, 0xbf, 0x85, 0x8f, 0xf4, 0xbe, 0x22, 0x89, 0x05, 0xbe,
  0xf7, 0xdf, 0x2f, 0xbe, 0x69, 0x63, 0xe9, 0xbe, 0xd3, 0xb5, 0x4a, 0xbe,
  0xf6, 0x9f, 0xc7, 0xbc, 0xaa, 0x92, 0xda, 0xbe, 0x93, 0xa6, 0x51, 0xbe,
  0x84, 0xf1, 0x4c, 0xbe, 0xa5, 0x77, 0xf2, 0xbd, 0x82, 0xac, 0x19, 0xbe,
  0x08, 0x6f, 0x9d, 0xbe, 0xcd, 0xe5, 0x99, 0xbe, 0x75, 0xfa, 0x93, 0xbe,
  0x50, 0xf5, 0xac, 0xbd, 0x1a, 0x41, 0xe3, 0xbe, 0x1d, 0x20, 0x1d, 0xbf,
  0xbb, 0x15, 0xcd, 0xbd, 0x1d, 0xde, 0x17, 0xbe, 0x86, 0x55, 0xc6, 0x3d,
  0xcc, 0x1c, 0xa4, 0x3c, 0x4c, 0x30, 0xd9, 0xbd, 0xff, 0x1b, 0x83, 0xbe,
  0x53, 0x50, 0xa2, 0xbd, 0x9e, 0x84, 0x7e, 0xbd, 0x2f, 0x28, 0xbb, 0xbd,
  0x8b, 0xf0, 0x7f, 0xbe, 0xcf, 0x6c, 0x89, 0xbe, 0x74, 0x41, 0xfc, 0xbd,
  0x48, 0xd3, 0x93, 0xbd, 0x67, 0x44, 0xe8, 0xbc, 0xb8, 0xce, 0x0d, 0xbf,
  0x0b, 0x6e, 0xfb, 0xbe, 0x9d, 0x93, 0xc0, 0xbd, 0x70, 0x16, 0x7c, 0xbe,
  0xd5, 0xc0, 0x7f, 0xbe, 0xe6, 0x0c, 0x11, 0x3e, 0x7e, 0x98, 0x51, 0xbe,
  0xc1, 0x28, 0xca, 0xbe, 0xc4, 0x2c, 0xbc, 0xbd, 0xe6, 0x86, 0xa4, 0xbd,
  0xaf, 0x1d, 0xe8, 0xbd, 0xf2, 0x4c, 0xd1, 0xbd, 0xf7, 0x8b, 0xb4, 0xbe,
  0xbd, 0x13, 0x04, 0xbe, 0x90, 0x32, 0x64, 0xbd, 0xd5, 0xa3, 0xd8, 0xbc,
  0xbc, 0x4e, 0x0f, 0xbf, 0x83, 0x38, 0x1a, 0xbf, 0x72, 0x4f, 0xad, 0x3c,
  0x00, 0x51, 0x84, 0xbd, 0xf4, 0x40, 0x02, 0xbe, 0xe1, 0xe4, 0x3c, 0x3d,
  0x9a, 0x94, 0x0a, 0xbe, 0xd3, 0x43, 0x8d, 0xbe, 0x23, 0xc9, 0x71, 0xbe,
  0xaf, 0x73, 0x8c, 0xbe, 0x57, 0x15, 0x24, 0xbe, 0x22, 0xf7, 0xb2, 0xbe,
  0xc8, 0x02, 0x63, 0xbe, 0x78, 0x87, 0xa8, 0xbd, 0x1f, 0x9a, 0x1d, 0xbe,
  0x24, 0xc0, 0xa8, 0xbd, 0x36, 0xd4, 0x09, 0xbf, 0xeb, 0xdb, 0x8a, 0xbe,
  0xfc, 0x26, 0x1e, 0x3c, 0xbb, 0xaf, 0x1e, 0x3e, 0x0d, 0xb4, 0xcc, 0x3d,
  0x39, 0xfa, 0x85, 0x3a, 0xdd, 0x8e, 0x75, 0xbd, 0xe0, 0xd8, 0x64, 0xbe,
  0x34, 0x56, 0x14, 0x3c, 0xa4, 0x6f, 0x72, 0x3e, 0xc6, 0xcb, 0x30, 0x3e,
  0xba, 0x69, 0xbf, 0x3e, 0x6d, 0xe8, 0xa6, 0x3d, 0x28, 0xb4, 0x87, 0xbe,
  0x20, 0x85, 0x8d, 0x3e, 0xe7, 0x35, 0xb1, 0xbc, 0x85, 0x7c, 0x9f, 0xbe,
  0x79, 0x8f, 0x06, 0xbe, 0xa5, 0x8d, 0xfc, 0x3c, 0x0c, 0x06, 0x40, 0x3e,
  0xfd, 0x72, 0xec, 0x3d, 0x19, 0x78, 0x5d, 0xbd, 0x49, 0x86, 0xa8, 0xbd,
  0x2d, 0xb8, 0x2e, 0xbe, 0x12, 0x97, 0x52, 0x3d, 0xea, 0xfe, 0xb2, 0x3e,
  0xd7, 0x15, 0xae, 0x3e, 0x71, 0xbf, 0x65, 0x3e, 0x08, 0xfe, 0xab, 0x3d,
  0xf9, 0x55, 0x4b, 0x3a, 0x11, 0x4e, 0xa7, 0x3e, 0x71, 0x3a, 0x40, 0xbd,
  0x26, 0x19, 0xaa, 0x3c, 0x12, 0xb9, 0xe7, 0x3d, 0xbe, 0x9c, 0xb2, 0x3e,
  0x4b, 0x7a, 0x29, 0xbe, 0x73, 0x82, 0xbd, 0x3e, 0xd6, 0x3b, 0x82, 0x3c,
  0xc8, 0x45, 0xf7, 0x3b, 0x3f, 0x10, 0x33, 0xbb, 0x7d, 0x2b, 0xcf, 0x3d,
  0xfc, 0xff, 0x9c, 0x3e, 0xb8, 0x8f, 0x15, 0xbe, 0x72, 0x30, 0xb1, 0x3d,
  0xa4, 0xb5, 0x81, 0x3d, 0xfc, 0x26, 0xd6, 0xbc, 0x9e, 0x6b, 0x9e, 0x3d,
  0x5a, 0x85, 0xa5, 0x3d, 0x55, 0x11, 0xb3, 0x3b, 0x61, 0x8f, 0x8a, 0xbe,
  0x6a, 0x6d, 0x19, 0x3e, 0x2b, 0x30, 0x5c, 0xbe, 0xb1, 0xb8, 0x5c, 0x3c,
  0x81, 0x66, 0x8a, 0xbe, 0x2b, 0xd6, 0x1b, 0xbc, 0x73, 0x04, 0x6a, 0x3e,
  0x51, 0xde, 0xb7, 0xbc, 0x99, 0xa8, 0xe9, 0xbd, 0x2b, 0x6c, 0x7a, 0xbd,
  0x6d, 0x49, 0xd6, 0xbd, 0x81, 0x3e, 0x35, 0x3e, 0x5c, 0xb7, 0x1c, 0xbf,
  0xbe, 0x1b, 0x8e, 0xbc, 0x27, 0x7a, 0xae, 0x3b, 0x61, 0xf6, 0x7c, 0xbe,
  0xae, 0xc1, 0x33, 0x3d, 0x41, 0xc5, 0xb6, 0xbe, 0xf7, 0xc2, 0x60, 0xbe,
  0x93, 0xc7, 0x43, 0x3e, 0x25, 0xb9, 0xe4, 0xbe, 0xd8, 0x3b, 0x61, 0xbe,
  0xa5, 0xcc, 0x5b, 0x3e, 0xbd, 0xb0, 0x82, 0x3d, 0xad, 0x7d, 0x32, 0xbe,
  0xf2, 0xd2, 0x0c, 0xbe, 0x9b, 0x1c, 0xf7, 0xbd, 0xe9, 0x6e, 0x04, 0x3e,
  0xcd, 0x84, 0x5b, 0xbe, 0x72, 0xc7, 0xac, 0xbd, 0x6b, 0x63, 0xe4, 0x3d,
  0xc9, 0xd1, 0x5c, 0xbe, 0x98, 0x2e, 0xb1, 0x3d, 0x03, 0x3e, 0xba, 0xbe,
  0xdc, 0x59, 0xc1, 0xbd, 0x58, 0xc8, 0x01, 0x3f, 0x1c, 0xfc, 0x9d, 0xbe,
  0x19, 0x45, 0x0d, 0xbe, 0x70, 0xff, 0xf9, 0x3d, 0xe9, 0x8c, 0x6a, 0xbb,
  0x39, 0x87, 0x1e, 0x3e, 0x03, 0x8e, 0xee, 0x3c, 0xa0, 0x02, 0x10, 0xbd,
  0x3d, 0xa0, 0xcf, 0x3e, 0x4c, 0x08, 0x22, 0xbe, 0xd4, 0x9d, 0x43, 0xbe,
  0xe7, 0x48, 0xd7, 0x3d, 0xee, 0xee, 0xc2, 0xbe, 0xa9, 0x9b, 0x7c, 0x3c,
  0x81, 0x1a, 0xc2, 0xbe, 0x50, 0x33, 0x07, 0xbd, 0xe8, 0xc1, 0x3a, 0x3d,
  0x89, 0x55, 0x93, 0xbe, 0xfd, 0xac, 0x03, 0xbe, 0xb2, 0xfc, 0x0d, 0x3d,
  0xd4, 0x5b, 0xbe, 0x3d, 0x6c, 0x1e, 0xa2, 0x3d, 0xde, 0x0e, 0xaf, 0x3d,
  0xac, 0x33, 0x8d, 0xbd, 0x69, 0x5d, 0x82, 0x3e, 0x26, 0x3b, 0x60, 0xbe,
  0xac, 0xb4, 0x02, 0xbe, 0xed, 0x38, 0xa8, 0x3d, 0x5a, 0x73, 0x13, 0xbe,
  0x1c, 0xca, 0xcd, 0x3d, 0x7b, 0x4f, 0xa3, 0xbe, 0xdb, 0xab, 0xeb, 0xbd,
  0xe7, 0xf6, 0x52, 0x3e, 0x21, 0x90, 0xd1, 0xbd, 0xdc, 0xb8, 0x52, 0xbe,
  0x4c, 0x4a, 0xc4, 0x3d, 0x34, 0x03, 0x8a, 0x3d, 0xa4, 0x14, 0xfd, 0xbd,
  0xba, 0x83, 0x45, 0x3e, 0x75, 0x53, 0xd0, 0xbd, 0xc1, 0x31, 0x03, 0x3e,
  0xe4, 0x60, 0x53, 0xbe, 0x3b, 0x1d, 0x8c, 0xbd, 0x62, 0x39, 0x0b, 0x3d,
  0xbf, 0xa7, 0x59, 0xbe, 0xe5, 0x0e, 0x6e, 0x3d, 0x2f, 0xad, 0xd9, 0xbe,
  0xdb, 0xca, 0x04, 0xbe, 0xab, 0xd6, 0xc7, 0x3b, 0x23, 0x4c, 0x31, 0xbe,
  0x91, 0x95, 0x96, 0xbe, 0x08, 0xec, 0x9e, 0x3d, 0xb3, 0x99, 0x0d, 0x3d,
  0x45, 0xad, 0x0f, 0xbe, 0xb9, 0xb4, 0x91, 0xbd, 0x1c, 0x57, 0x84, 0xbe,
  0xe9, 0xcb, 0x0d, 0x3e, 0x5c, 0xe7, 0x5a, 0xbe, 0xe7, 0x08, 0x40, 0xbb,
  0x29, 0xed, 0x48, 0x3d, 0x0e, 0x90, 0x63, 0xbe, 0xb5, 0x3d, 0xc1, 0x3b,
  0x62, 0x52, 0x87, 0xbe, 0x76, 0x19, 0x9b, 0xbe, 0x5a, 0x25, 0xbc, 0xbc,
  0x8c, 0x58, 0xb3, 0xbd, 0x2b, 0x3b, 0xa4, 0xbd, 0x77, 0x10, 0x97, 0xbd,
  0xd0, 0x85, 0xb5, 0xbc, 0xff, 0xf4, 0xa2, 0xbd, 0xb0, 0x4f, 0x9c, 0x3c,
  0x1e, 0x43, 0x9d, 0xbe, 0x92, 0x60, 0xb0, 0x3d, 0x5c, 0x2f, 0xae, 0xbc,
  0xe5, 0x1d, 0xf7, 0xbd, 0xa1, 0x48, 0x20, 0xbd, 0x2c, 0xbd, 0x14, 0xbc,
  0x8a, 0xcf, 0x16, 0x3e, 0x74, 0xff, 0x3d, 0x40, 0x67, 0xa3, 0x90, 0x3e,
  0xc6, 0x50, 0x54, 0xbe, 0xdc, 0xb7, 0x70, 0x3e, 0x0d, 0x96, 0xc8, 0x3d,
  0x56, 0x7e, 0xff, 0xbd, 0x84, 0x29, 0xa1, 0xbe, 0xfa, 0x75, 0x0c, 0xbe,
  0x04, 0xe1, 0x6c, 0xbe, 0x14, 0x57, 0x5e, 0xbd, 0xf1, 0x14, 0x99, 0xbe,
  0x50, 0xaf, 0xae, 0x3d, 0x99, 0xe1, 0x86, 0xbe, 0x24, 0xf8, 0x15, 0xbe,
  0x68, 0x36, 0x80, 0x3d, 0xdf, 0x96, 0x89, 0xbd, 0x80, 0x92, 0x8c, 0x40,
  0xda, 0x69, 0xda, 0x3d, 0x43, 0x39, 0x2f, 0xbe, 0x65, 0x5e, 0x0a, 0x3e,
  0x56, 0x86, 0x94, 0x3e, 0x75, 0x89, 0x86, 0xbe, 0xb1, 0xe0, 0x78, 0xbe,
  0x21, 0xe1, 0x6c, 0x3e, 0x7a, 0x14, 0xd7, 0xbe, 0xa3, 0x30, 0xab, 0x3e,
  0x44, 0x6e, 0x88, 0xbe, 0x1c, 0x72, 0x9b, 0x3d, 0x57, 0x06, 0x5c, 0xbc,
  0x36, 0x2c, 0x03, 0xbe, 0x19, 0xd3, 0xd4, 0x3d, 0x3a, 0x4d, 0x80, 0xbd,
  0x4d, 0x27, 0x98, 0x40, 0x1f, 0xca, 0x04, 0x3e, 0x14, 0x93, 0xa9, 0xbe,
  0xc1, 0x00, 0x26, 0x3e, 0x5b, 0xe7, 0xbf, 0x3e, 0xc1, 0x6e, 0xbe, 0xbd,
  0x9a, 0xb7, 0x7b, 0xbd, 0x00, 0x51, 0x0d, 0x3e, 0x21, 0xa6, 0xc6, 0x3e,
  0x86, 0x2e, 0xae, 0x3e, 0x4f, 0x1f, 0x8b, 0xbe, 0x2e, 0x60, 0x01, 0x3f,
  0xff, 0x7d, 0x8f, 0xbc, 0x10, 0x15, 0xe2, 0x3c, 0xd1, 0x2c, 0xa2, 0x3e,
  0xed, 0xa7, 0x92, 0xbc, 0x19, 0xea, 0x97, 0x40, 0x9b, 0x74, 0xa8, 0x3e,
  0x42, 0xb0, 0x12, 0x3d, 0x6e, 0x4b, 0xfe, 0x3d, 0x87, 0x5d, 0x1e, 0x3e,
  0x45, 0xb9, 0xf1, 0x3c, 0x63, 0xf8, 0x2d, 0xbe, 0xc6, 0xbf, 0x9c, 0x3b,
  0x79, 0xe5, 0x68, 0x3e, 0x6c, 0xe7, 0x94, 0x3e, 0xe1, 0xbc, 0xb2, 0xbe,
  0xdb, 0x97, 0x0d, 0x3f, 0xcf, 0xf5, 0x3e, 0x3e, 0xc1, 0xbf, 0x1d, 0x3d,
  0xb4, 0x16, 0x96, 0x3e, 0x54, 0xca, 0xa0, 0x3d, 0x81, 0x7a, 0x94, 0x40,
  0x76, 0x12, 0x7e, 0x3e, 0x43, 0x5d, 0x48, 0x3e, 0xb4, 0x32, 0x9f, 0x3e,
  0xbe, 0x3c, 0xf8, 0x3d, 0x15, 0xf3, 0xa3, 0x3c, 0x4a, 0xb8, 0x2d, 0xbd,
  0x75, 0x77, 0x01, 0xbe, 0x82, 0xb8, 0xd4, 0xbc, 0x09, 0x8c, 0xd7, 0xbd,
  0x14, 0x90, 0x6a, 0xbe, 0xd4, 0x04, 0x90, 0x3e, 0x9b, 0x8b, 0x74, 0xbe,
  0x67, 0xa2, 0x88, 0xbd, 0x2a, 0x6d, 0x9a, 0x3e, 0xd4, 0x91, 0x29, 0xbd,
  0x74, 0x40, 0x35, 0x40, 0x89, 0xb5, 0x68, 0x3e, 0x86, 0xe4, 0xbb, 0xbe,
  0x1c, 0xdf, 0xb9, 0x3e, 0xe8, 0xeb, 0x20, 0x3e, 0xd6, 0x73, 0x1d, 0x3e,
  0x37, 0xb6, 0x8c, 0xbe, 0x60, 0x1a, 0x89, 0xbe, 0xfd, 0x6b, 0x00, 0xbf,
  0xfa, 0x87, 0x0a, 0xbe, 0x80, 0x47, 0x82, 0xbe, 0xcb, 0xb1, 0x30, 0x3e,
  0x50, 0xa6, 0xd5, 0xbe, 0x50, 0x9c, 0x51, 0xbc, 0x69, 0xc8, 0xee, 0x3d,
  0xd4, 0xff, 0x08, 0xbd, 0x24, 0xae, 0x88, 0x40, 0x67, 0x9a, 0x55, 0x3e,
  0xb2, 0xba, 0x62, 0xbe, 0xe3, 0x0b, 0x52, 0x3e, 0xc1, 0x96, 0x2b, 0x3e,
  0xcb, 0xac, 0x36, 0x3e, 0x18, 0xfe, 0x45, 0xbe, 0x81, 0xfe, 0x30, 0xbe,
  0x7d, 0x8e, 0x89, 0xbe, 0xcc, 0x0f, 0x82, 0x3d, 0x8b, 0x1b, 0x6f, 0xbe,
  0x73, 0x33, 0x87, 0xbc, 0xee, 0x57, 0x5d, 0xbe, 0x8a, 0xfd, 0x8a, 0xbd,
  0x66, 0xfd, 0xff, 0xff, 0x10, 0x00, 0x00, 0x00, 0x07, 0x00, 0x00, 0x00,
  0x14, 0x00, 0x00, 0x00, 0x2c, 0x00, 0x00, 0x00, 0x02, 0x00, 0x00, 0x00,
  0x10, 0x00, 0x00, 0x00, 0x70, 0x00, 0x00, 0x00, 0x17, 0x00, 0x00, 0x00,
  0x73, 0x65, 0x71, 0x75, 0x65, 0x6e, 0x74, 0x69, 0x61, 0x6c, 0x2f, 0x64,
  0x65, 0x6e, 0x73, 0x65, 0x2f, 0x4d, 0x61, 0x74, 0x4d, 0x75, 0x6c, 0x00,
  0xd0, 0xfc, 0xff, 0xff, 0xda, 0xfd, 0xff, 0xff, 0x04, 0x00, 0x00, 0x00,
  0x08, 0x00, 0x00, 0x00, 0xff, 0xff, 0xff, 0xff, 0x70, 0x00, 0x00, 0x00,
  0x00, 0x00, 0x0e, 0x00, 0x18, 0x00, 0x08, 0x00, 0x07, 0x00, 0x0c, 0x00,
  0x10, 0x00, 0x14, 0x00, 0x0e, 0x00, 0x00, 0x00, 0x00, 0x00, 0x00, 0x02,
  0x10, 0x00, 0x00, 0x00, 0x06, 0x00, 0x00, 0x00, 0x10, 0x00, 0x00, 0x00,
  0x2c, 0x00, 0x00, 0x00, 0x01, 0x00, 0x00, 0x00, 0x02, 0x00, 0x00, 0x00,
  0x18, 0x00, 0x00, 0x00, 0x73, 0x65, 0x71, 0x75, 0x65, 0x6e, 0x74, 0x69,
  0x61, 0x6c, 0x2f, 0x66, 0x6c, 0x61, 0x74, 0x74, 0x65, 0x6e, 0x2f, 0x43,
  0x6f, 0x6e, 0x73, 0x74, 0x00, 0x00, 0x00, 0x00, 0x38, 0xfd, 0xff, 0xff,
  0x42, 0xfe, 0xff, 0xff, 0x04, 0x00, 0x00, 0x00, 0x0c, 0x00, 0x00, 0x00,
  0x6d, 0xb5, 0xc1, 0x3f, 0x7f, 0x50, 0x81, 0xc0, 0xc5, 0xb8, 0x28, 0x3f,
  0x26, 0xfe, 0xff, 0xff, 0x10, 0x00, 0x00, 0x00, 0x05, 0x00, 0x00, 0x00,
  0x10, 0x00, 0x00, 0x00, 0x44, 0x00, 0x00, 0x00, 0x01, 0x00, 0x00, 0x00,
  0x03, 0x00, 0x00, 0x00, 0x32, 0x00, 0x00, 0x00, 0x73, 0x65, 0x71, 0x75,
  0x65, 0x6e, 0x74, 0x69, 0x61, 0x6c, 0x2f, 0x64, 0x65, 0x6e, 0x73, 0x65,
  0x5f, 0x31, 0x2f, 0x42, 0x69, 0x61, 0x73, 0x41, 0x64, 0x64, 0x2f, 0x52,
  0x65, 0x61, 0x64, 0x56, 0x61, 0x72, 0x69, 0x61, 0x62, 0x6c, 0x65, 0x4f,
  0x70, 0x2f, 0x72, 0x65, 0x73, 0x6f, 0x75, 0x72, 0x63, 0x65, 0x00, 0x00,
  0xa8, 0xfd, 0xff, 0xff, 0xb2, 0xfe, 0xff, 0xff, 0x04, 0x00, 0x00, 0x00,
  0x40, 0x00, 0x00, 0x00, 0x98, 0x36, 0x9f, 0x40, 0xe0, 0x9d, 0x88, 0x3e,
  0x9c, 0xd9, 0x91, 0x3e, 0x50, 0x83, 0x89, 0x40, 0xe9, 0x4a, 0x60, 0xbe,
  0xa6, 0x98, 0xe6, 0xbc, 0xe6, 0x0a, 0x2f, 0xbe, 0x4e, 0x73, 0x75, 0xbe,
  0x11, 0xa7, 0x9d, 0xbf, 0x61, 0x41, 0x8d, 0xbe, 0x76, 0xe3, 0x1d, 0xbe,
  0x50, 0x89, 0x1f, 0xbf, 0xcf, 0x33, 0x02, 0xbe, 0x5d, 0x73, 0x45, 0xbf,
  0x12, 0x7b, 0x67, 0x40, 0xbc, 0x0e, 0x4a, 0x3e, 0xca, 0xfe, 0xff, 0xff,
  0x10, 0x00, 0x00, 0x00, 0x04, 0x00, 0x00, 0x00, 0x10, 0x00, 0x00, 0x00,
  0x44, 0x00, 0x00, 0x00, 0x01, 0x00, 0x00, 0x00, 0x10, 0x00, 0x00, 0x00,
  0x30, 0x00, 0x00, 0x00, 0x73, 0x65, 0x71, 0x75, 0x65, 0x6e, 0x74, 0x69,
  0x61, 0x6c, 0x2f, 0x64, 0x65, 0x6e, 0x73, 0x65, 0x2f, 0x42, 0x69, 0x61,
  0x73, 0x41, 0x64, 0x64, 0x2f, 0x52, 0x65, 0x61, 0x64, 0x56, 0x61, 0x72,
  0x69, 0x61, 0x62, 0x6c, 0x65, 0x4f, 0x70, 0x2f, 0x72, 0x65, 0x73, 0x6f,
  0x75, 0x72, 0x63, 0x65, 0x00, 0x00, 0x00, 0x00, 0x4c, 0xfe, 0xff, 0xff,
  0x56, 0xff, 0xff, 0xff, 0x04, 0x00, 0x00, 0x00, 0x40, 0x00, 0x00, 0x00,
  0x43, 0x7b, 0x35, 0xbe, 0xfc, 0xbc, 0xc0, 0x3f, 0x9f, 0xff, 0xe2, 0x40,
  0xd5, 0x66, 0x16, 0xc0, 0x98, 0x2d, 0x48, 0x3f, 0x32, 0x95, 0x37, 0xc0,
  0x64, 0x9f, 0xf9, 0xbf, 0x59, 0x4b, 0x0a, 0x3d, 0x81, 0xec, 0x01, 0x40,
  0x2b, 0x79, 0x3a, 0xc0, 0x08, 0x78, 0x4a, 0xbf, 0x2e, 0x0a, 0x35, 0xc0,
  0xe8, 0xee, 0x7a, 0x3f, 0x06, 0xba, 0x49, 0xc0, 0xd7, 0xb6, 0x92, 0xbf,
  0xa0, 0x80, 0x1b, 0x40, 0x6e, 0xff, 0xff, 0xff, 0x10, 0x00, 0x00, 0x00,
  0x03, 0x00, 0x00, 0x00, 0x10, 0x00, 0x00, 0x00, 0x48, 0x00, 0x00, 0x00,
  0x01, 0x00, 0x00, 0x00, 0x10, 0x00, 0x00, 0x00, 0x33, 0x00, 0x00, 0x00,
  0x73, 0x65, 0x71, 0x75, 0x65, 0x6e, 0x74, 0x69, 0x61, 0x6c, 0x2f, 0x63,
  0x6f, 0x6e, 0x76, 0x32, 0x64, 0x5f, 0x31, 0x2f, 0x42, 0x69, 0x61, 0x73,
  0x41, 0x64, 0x64, 0x2f, 0x52, 0x65, 0x61, 0x64, 0x56, 0x61, 0x72, 0x69,
  0x61, 0x62, 0x6c, 0x65, 0x4f, 0x70, 0x2f, 0x72, 0x65, 0x73, 0x6f, 0x75,
  0x72, 0x63, 0x65, 0x00, 0x04, 0x00, 0x06, 0x00, 0x04, 0x00, 0x00, 0x00,
  0x00, 0x00, 0x06, 0x00, 0x08, 0x00, 0x04, 0x00, 0x06, 0x00, 0x00, 0x00,
  0x04, 0x00, 0x00, 0x00, 0x20, 0x00, 0x00, 0x00, 0x8b, 0xa4, 0x7e, 0xc0,
  0x50, 0x3e, 0xe5, 0xbf, 0xe5, 0xb3, 0xe2, 0xbd, 0x72, 0x22, 0x40, 0x3e,
  0xd7, 0x1a, 0x17, 0xc0, 0x4f, 0x6a, 0x14, 0xbf, 0x2b, 0x46, 0x9c, 0xbf,
  0xe8, 0xdd, 0x54, 0x3e, 0x00, 0x00, 0x0e, 0x00, 0x14, 0x00, 0x04, 0x00,
  0x00, 0x00, 0x08, 0x00, 0x0c, 0x00, 0x10, 0x00, 0x0e, 0x00, 0x00, 0x00,
  0x10, 0x00, 0x00, 0x00, 0x02, 0x00, 0x00, 0x00, 0x10, 0x00, 0x00, 0x00,
  0x44, 0x00, 0x00, 0x00, 0x01, 0x00, 0x00, 0x00, 0x08, 0x00, 0x00, 0x00,
  0x31, 0x00, 0x00, 0x00, 0x73, 0x65, 0x71, 0x75, 0x65, 0x6e, 0x74, 0x69,
  0x61, 0x6c, 0x2f, 0x63, 0x6f, 0x6e, 0x76, 0x32, 0x64, 0x2f, 0x42, 0x69,
  0x61, 0x73, 0x41, 0x64, 0x64, 0x2f, 0x52, 0x65, 0x61, 0x64, 0x56, 0x61,
  0x72, 0x69, 0x61, 0x62, 0x6c, 0x65, 0x4f, 0x70, 0x2f, 0x72, 0x65, 0x73,
  0x6f, 0x75, 0x72, 0x63, 0x65, 0x00, 0x00, 0x00, 0x90, 0xff, 0xff, 0xff,
  0x14, 0x00, 0x18, 0x00, 0x04, 0x00, 0x00, 0x00, 0x08, 0x00, 0x0c, 0x00,
  0x10, 0x00, 0x00, 0x00, 0x00, 0x00, 0x14, 0x00, 0x14, 0x00, 0x00, 0x00,
  0x14, 0x00, 0x00, 0x00, 0x01, 0x00, 0x00, 0x00, 0x20, 0x00, 0x00, 0x00,
  0x44, 0x00, 0x00, 0x00, 0x2c, 0x00, 0x00, 0x00, 0x04, 0x00, 0x00, 0x00,
  0x01, 0x00, 0x00, 0x00, 0x40, 0x00, 0x00, 0x00, 0x03, 0x00, 0x00, 0x00,
  0x01, 0x00, 0x00, 0x00, 0x0c, 0x00, 0x00, 0x00, 0x63, 0x6f, 0x6e, 0x76,
  0x32, 0x64, 0x5f, 0x69, 0x6e, 0x70, 0x75, 0x74, 0x00, 0x00, 0x00, 0x00,
  0x04, 0x00, 0x00, 0x00, 0xff, 0xff, 0xff, 0xff, 0x40, 0x00, 0x00, 0x00,
  0x03, 0x00, 0x00, 0x00, 0x01, 0x00, 0x00, 0x00, 0xfc, 0xff, 0xff, 0xff,
  0x04, 0x00, 0x04, 0x00, 0x04, 0x00, 0x00, 0x00
};

unsigned int model_tflite_len = 13052;// Fill the int in `src/model.cc` here